unsigned char g_model[] = {
  0x20, 0x00, 0x00, 0x00, 0x54, 0x46, 0x4c, 0x33, 0x00, 0x00, 0x00, 0x00,
  0x14, 0x00, 0x20, 0x00, 0x1c, 0x00, 0x18, 0x00, 0x14, 0x00, 0x10, 0x00,
  0x0c, 0x00, 0x00, 0x00, 0x08, 0x00, 0x04, 0x00, 0x14, 0x00, 0x00, 0x00,
  0x1c, 0x00, 0x00, 0x00, 0x80, 0x00, 0x00, 0x00, 0xd8, 0x00, 0x00, 0x00,
  0x60, 0x10, 0x00, 0x00, 0x70, 0x10, 0x00, 0x00, 0x70, 0x27, 0x00, 0x00,
  0x03, 0x00, 0x00, 0x00, 0x01, 0x00, 0x00, 0x00, 0x04, 0x00, 0x00, 0x00,
  0xb6, 0xed, 0xff, 0xff, 0x0c, 0x00, 0x00, 0x00, 0x1c, 0x00, 0x00, 0x00,
  0x38, 0x00, 0x00, 0x00, 0x0f, 0x00, 0x00, 0x00, 0x73, 0x65, 0x72, 0x76,
  0x69, 0x6e, 0x67, 0x5f, 0x64, 0x65, 0x66, 0x61, 0x75, 0x6c, 0x74, 0x00,
  0x01, 0x00, 0x00, 0x00, 0x04, 0x00, 0x00, 0x00, 0x9c, 0xff, 0xff, 0xff,
  0x18, 0x00, 0x00, 0x00, 0x04, 0x00, 0x00, 0x00, 0x05, 0x00, 0x00, 0x00,
  0x64, 0x65, 0x6e, 0x73, 0x65, 0x00, 0x00, 0x00, 0x01, 0x00, 0x00, 0x00,
  0x04, 0x00, 0x00, 0x00, 0x22, 0xf0, 0xff, 0xff, 0x04, 0x00, 0x00, 0x00,
  0x07, 0x00, 0x00, 0x00, 0x69, 0x6e, 0x70, 0x75, 0x74, 0x5f, 0x31, 0x00,
  0x02, 0x00, 0x00, 0x00, 0x34, 0x00, 0x00, 0x00, 0x04, 0x00, 0x00, 0x00,
  0xdc, 0xff, 0xff, 0xff, 0x1b, 0x00, 0x00, 0x00, 0x04, 0x00, 0x00, 0x00,
  0x13, 0x00, 0x00, 0x00, 0x43, 0x4f, 0x4e, 0x56, 0x45, 0x52, 0x53, 0x49,
  0x4f, 0x4e, 0x5f, 0x4d, 0x45, 0x54, 0x41, 0x44, 0x41, 0x54, 0x41, 0x00,
  0x08, 0x00, 0x0c, 0x00, 0x08, 0x00, 0x04, 0x00, 0x08, 0x00, 0x00, 0x00,
  0x1a, 0x00, 0x00, 0x00, 0x04, 0x00, 0x00, 0x00, 0x13, 0x00, 0x00, 0x00,
  0x6d, 0x69, 0x6e, 0x5f, 0x72, 0x75, 0x6e, 0x74, 0x69, 0x6d, 0x65, 0x5f,
  0x76, 0x65, 0x72, 0x73, 0x69, 0x6f, 0x6e, 0x00, 0x1c, 0x00, 0x00, 0x00,
  0x84, 0x0f, 0x00, 0x00, 0x7c, 0x0f, 0x00, 0x00, 0x68, 0x0f, 0x00, 0x00,
  0x44, 0x0f, 0x00, 0x00, 0x28, 0x0f, 0x00, 0x00, 0x10, 0x0f, 0x00, 0x00,
  0xfc, 0x0e, 0x00, 0x00, 0x6c, 0x0d, 0x00, 0x00, 0xdc, 0x0c, 0x00, 0x00,
  0xcc, 0x09, 0x00, 0x00, 0x9c, 0x09, 0x00, 0x00, 0x8c, 0x02, 0x00, 0x00,
  0xfc, 0x01, 0x00, 0x00, 0xec, 0x00, 0x00, 0x00, 0xe4, 0x00, 0x00, 0x00,
  0xdc, 0x00, 0x00, 0x00, 0xd4, 0x00, 0x00, 0x00, 0xcc, 0x00, 0x00, 0x00,
  0xc4, 0x00, 0x00, 0x00, 0xbc, 0x00, 0x00, 0x00, 0xb4, 0x00, 0x00, 0x00,
  0xac, 0x00, 0x00, 0x00, 0xa4, 0x00, 0x00, 0x00, 0x9c, 0x00, 0x00, 0x00,
  0x94, 0x00, 0x00, 0x00, 0x8c, 0x00, 0x00, 0x00, 0x6c, 0x00, 0x00, 0x00,
  0x04, 0x00, 0x00, 0x00, 0x06, 0xf1, 0xff, 0xff, 0x04, 0x00, 0x00, 0x00,
  0x58, 0x00, 0x00, 0x00, 0x0c, 0x00, 0x00, 0x00, 0x08, 0x00, 0x0e, 0x00,
  0x08, 0x00, 0x04, 0x00, 0x08, 0x00, 0x00, 0x00, 0x10, 0x00, 0x00, 0x00,
  0x28, 0x00, 0x00, 0x00, 0x00, 0x00, 0x06, 0x00, 0x08, 0x00, 0x04, 0x00,
  0x06, 0x00, 0x00, 0x00, 0x04, 0x00, 0x00, 0x00, 0x01, 0x00, 0x00, 0x00,
  0xeb, 0x03, 0x00, 0x00, 0x00, 0x00, 0x0a, 0x00, 0x10, 0x00, 0x0c, 0x00,
  0x08, 0x00, 0x04, 0x00, 0x0a, 0x00, 0x00, 0x00, 0x02, 0x00, 0x00, 0x00,
  0x02, 0x00, 0x00, 0x00, 0x04, 0x00, 0x00, 0x00, 0x06, 0x00, 0x00, 0x00,
  0x32, 0x2e, 0x31, 0x30, 0x2e, 0x30, 0x00, 0x00, 0x6a, 0xf1, 0xff, 0xff,
  0x04, 0x00, 0x00, 0x00, 0x10, 0x00, 0x00, 0x00, 0x31, 0x2e, 0x31, 0x34,
  0x2e, 0x30, 0x00, 0x00, 0x00, 0x00, 0x00, 0x00, 0x00, 0x00, 0x00, 0x00,
  0x88, 0xda, 0xff, 0xff, 0x8c, 0xda, 0xff, 0xff, 0x90, 0xda, 0xff, 0xff,
  0x94, 0xda, 0xff, 0xff, 0x98, 0xda, 0xff, 0xff, 0x9c, 0xda, 0xff, 0xff,
  0xa0, 0xda, 0xff, 0xff, 0xa4, 0xda, 0xff, 0xff, 0xa8, 0xda, 0xff, 0xff,
  0xac, 0xda, 0xff, 0xff, 0xb0, 0xda, 0xff, 0xff, 0xb4, 0xda, 0xff, 0xff,
  0xb6, 0xf1, 0xff, 0xff, 0x04, 0x00, 0x00, 0x00, 0x00, 0x01, 0x00, 0x00,
  0xc8, 0x16, 0x7f, 0xfa, 0xeb, 0x00, 0x49, 0xfe, 0xca, 0xee, 0x99, 0x81,
  0x13, 0xf9, 0x55, 0x0c, 0x46, 0x0a, 0x58, 0xde, 0x7f, 0xf6, 0x0e, 0x18,
  0xf2, 0xea, 0x81, 0xe8, 0xeb, 0x1c, 0xb7, 0xf6, 0xe4, 0xf8, 0x26, 0xf4,
  0x7f, 0x19, 0xf7, 0xfc, 0x10, 0xe5, 0x44, 0x01, 0x28, 0x12, 0x7f, 0x1a,
  0xe5, 0xf9, 0xa6, 0xff, 0xa1, 0x15, 0x81, 0x01, 0x81, 0xe7, 0xf2, 0x12,
  0x81, 0x0d, 0xdd, 0x01, 0x81, 0x1c, 0xe0, 0xe5, 0x94, 0xf5, 0xe7, 0xc4,
  0xa5, 0xe7, 0xb1, 0xff, 0xa0, 0x11, 0x81, 0x14, 0x07, 0x16, 0x7f, 0x07,
  0x08, 0x01, 0x7c, 0xe3, 0x3d, 0xee, 0xa4, 0xeb, 0x58, 0x1c, 0x81, 0xee,
  0xc1, 0x0b, 0x06, 0xdd, 0xb6, 0x81, 0x0b, 0xcf, 0xcb, 0xfc, 0x7f, 0x09,
  0x26, 0x05, 0x69, 0x15, 0x1a, 0x0a, 0x93, 0xe3, 0x52, 0xf8, 0x81, 0x1f,
  0x90, 0x04, 0xb2, 0xc1, 0x81, 0x1d, 0xd4, 0x02, 0x4b, 0xf6, 0x65, 0x07,
  0x43, 0x05, 0x7f, 0x04, 0x81, 0xf3, 0xfe, 0x0f, 0xb6, 0xf6, 0xe6, 0x0c,
  0x02, 0x1a, 0x7f, 0x20, 0xeb, 0xe9, 0x5e, 0xfa, 0x0a, 0x2e, 0xc0, 0xe1,
  0x3d, 0xe7, 0x81, 0xc1, 0x7f, 0x0d, 0x5e, 0xf1, 0x69, 0x0e, 0x12, 0x03,
  0xe2, 0x0d, 0x7d, 0x07, 0xc4, 0xf9, 0x7f, 0xf4, 0xf9, 0xfe, 0x76, 0xdf,
  0xb9, 0x10, 0x7f, 0x0d, 0x81, 0x07, 0xf8, 0x15, 0xa9, 0xe7, 0x24, 0x08,
  0x8b, 0xd2, 0x81, 0xb9, 0x91, 0xef, 0xf6, 0x47, 0x81, 0x1a, 0x1e, 0xf8,
  0xad, 0x96, 0x3f, 0x0f, 0xa1, 0x0a, 0xfa, 0xf9, 0x81, 0xe3, 0x04, 0x18,
  0x98, 0x8f, 0xa8, 0x18, 0xfb, 0xb7, 0x81, 0xd5, 0x4e, 0xff, 0x7f, 0xfa,
  0x42, 0xfb, 0x64, 0x15, 0x81, 0x2c, 0xd2, 0x2b, 0x9c, 0xc8, 0x1a, 0xcd,
  0x47, 0x86, 0xf2, 0x2b, 0x8b, 0xc8, 0xc0, 0x81, 0xdb, 0x0e, 0x81, 0x0a,
  0x0c, 0xdc, 0xa8, 0x1e, 0xc2, 0xf2, 0xff, 0xff, 0x04, 0x00, 0x00, 0x00,
  0x80, 0x00, 0x00, 0x00, 0x00, 0x00, 0x00, 0x00, 0x00, 0x00, 0x00, 0x00,
  0xff, 0xff, 0xff, 0xff, 0xff, 0xff, 0xff, 0xff, 0x00, 0x00, 0x00, 0x00,
  0x00, 0x00, 0x00, 0x00, 0x00, 0x00, 0x00, 0x00, 0x00, 0x00, 0x00, 0x00,
  0xff, 0xff, 0xff, 0xff, 0x00, 0x00, 0x00, 0x00, 0x00, 0x00, 0x00, 0x00,
  0x00, 0x00, 0x00, 0x00, 0x00, 0x00, 0x00, 0x00, 0x00, 0x00, 0x00, 0x00,
  0x00, 0x00, 0x00, 0x00, 0xff, 0xff, 0xff, 0xff, 0x00, 0x00, 0x00, 0x00,
  0x00, 0x00, 0x00, 0x00, 0x00, 0x00, 0x00, 0x00, 0xff, 0xff, 0xff, 0xff,
  0xff, 0xff, 0xff, 0xff, 0x00, 0x00, 0x00, 0x00, 0x00, 0x00, 0x00, 0x00,
  0x00, 0x00, 0x00, 0x00, 0x00, 0x00, 0x00, 0x00, 0x00, 0x00, 0x00, 0x00,
  0x00, 0x00, 0x00, 0x00, 0x00, 0x00, 0x00, 0x00, 0x00, 0x00, 0x00, 0x00,
  0x00, 0x00, 0x00, 0x00, 0x00, 0x00, 0x00, 0x00, 0x00, 0x00, 0x00, 0x00,
  0x4e, 0xf3, 0xff, 0xff, 0x04, 0x00, 0x00, 0x00, 0x00, 0x07, 0x00, 0x00,
  0x1b, 0x15, 0x03, 0x03, 0x2e, 0x4a, 0xd1, 0xae, 0x20, 0x8f, 0x32, 0x02,
  0xde, 0x2f, 0x14, 0xd9, 0x4e, 0x04, 0x0d, 0x0b, 0x3b, 0xdd, 0x04, 0xea,
  0xf4, 0x7f, 0x4a, 0xf8, 0x1f, 0xc3, 0x20, 0x08, 0xee, 0xff, 0x18, 0x05,
  0xf1, 0xf3, 0x05, 0xfd, 0xe7, 0xc3, 0x13, 0xfa, 0x1b, 0x14, 0xdd, 0xc7,
  0x61, 0x0f, 0xf7, 0xe0, 0xf6, 0x14, 0x19, 0xfe, 0x00, 0x83, 0xc4, 0xf9,
  0x52, 0xd2, 0x0d, 0xc5, 0xd8, 0x07, 0x23, 0xc9, 0xde, 0x00, 0x03, 0xfb,
  0xfc, 0xbb, 0x0f, 0xfc, 0xd6, 0x2c, 0xd8, 0x01, 0x42, 0xee, 0x1c, 0x24,
  0xea, 0x15, 0x17, 0x1a, 0x15, 0xca, 0xef, 0xf8, 0x04, 0x0b, 0xd5, 0xef,
  0x20, 0x18, 0xdf, 0xf6, 0xfc, 0x0f, 0xf4, 0x02, 0x00, 0xcc, 0x20, 0x03,
  0x0c, 0x1e, 0xe9, 0x30, 0xdb, 0xf5, 0x10, 0x12, 0xf1, 0x13, 0x29, 0x13,
  0xf6, 0x3a, 0xed, 0xf3, 0x08, 0x9c, 0xdf, 0xe5, 0xf1, 0xd5, 0xf8, 0x1f,
  0xde, 0x14, 0xde, 0x01, 0x50, 0x07, 0xbe, 0xa6, 0xfc, 0xe5, 0xeb, 0x0d,
  0xfe, 0x1b, 0x1a, 0xd5, 0xe4, 0xf7, 0xe6, 0xdb, 0x03, 0xaf, 0x16, 0x1c,
  0xd6, 0xef, 0x11, 0xde, 0x07, 0xe1, 0xe2, 0x17, 0x28, 0xec, 0xf6, 0x06,
  0x18, 0x05, 0x21, 0x07, 0xee, 0x1d, 0xe7, 0x47, 0xf8, 0xa7, 0xc5, 0x07,
  0x07, 0x34, 0xfa, 0xc7, 0x12, 0xb6, 0xd1, 0x13, 0x19, 0xe7, 0x1b, 0xcf,
  0x0c, 0xfa, 0xe6, 0xe7, 0xf6, 0x22, 0x10, 0xf0, 0x25, 0xe2, 0x0e, 0x04,
  0x1f, 0x25, 0x08, 0x25, 0x41, 0x0f, 0x0a, 0xfb, 0xf4, 0xe9, 0x1f, 0xce,
  0x1b, 0x42, 0x1c, 0x12, 0x4f, 0xcb, 0xe9, 0xfd, 0x2a, 0x0c, 0x07, 0xfa,
  0x20, 0xc3, 0xf7, 0xe8, 0x33, 0xe4, 0x0d, 0xd4, 0xe9, 0xe4, 0xfc, 0x12,
  0xcf, 0xdf, 0x28, 0x4a, 0xf8, 0x2c, 0x00, 0xf2, 0xee, 0xd7, 0xf7, 0x18,
  0x10, 0x43, 0x1d, 0xd2, 0xcf, 0xf3, 0x0a, 0xe6, 0xcf, 0xd2, 0xe6, 0x05,
  0x17, 0xcd, 0x18, 0xd3, 0x15, 0xe3, 0x18, 0xe3, 0xeb, 0x24, 0x17, 0xfe,
  0xd0, 0x08, 0xbb, 0x3b, 0x1e, 0x25, 0x0a, 0xe8, 0xdc, 0xfb, 0xdd, 0x1c,
  0xcb, 0xed, 0xfb, 0x3b, 0xde, 0xe9, 0xd9, 0x4a, 0x12, 0x2e, 0xe0, 0x1c,
  0xdf, 0xfd, 0xe9, 0x08, 0xcb, 0xcc, 0xf6, 0xbc, 0xcb, 0xdc, 0xd0, 0xd5,
  0x17, 0xec, 0xde, 0x08, 0xc0, 0xe0, 0xf2, 0xe2, 0x2b, 0xfd, 0xf8, 0x1b,
  0x26, 0x81, 0x1c, 0x04, 0xe3, 0xe4, 0x3c, 0x0d, 0x07, 0xe7, 0x03, 0x0d,
  0xc7, 0x12, 0xe6, 0x14, 0x0b, 0xfd, 0x39, 0xe0, 0xe5, 0x65, 0x17, 0x1b,
  0xd2, 0x43, 0x02, 0xd8, 0xf0, 0x1a, 0x0d, 0x27, 0x24, 0xc9, 0x2e, 0x1b,
  0x0a, 0x01, 0xec, 0x11, 0x16, 0x14, 0xfd, 0x14, 0xe0, 0xf3, 0xe8, 0x31,
  0x04, 0x32, 0xfd, 0x2a, 0x10, 0xe0, 0x11, 0xe9, 0xdd, 0xfb, 0xdf, 0xe1,
  0xe2, 0x1d, 0xe7, 0xe5, 0xe4, 0x05, 0xd6, 0x13, 0x37, 0xe9, 0xd4, 0xe9,
  0xef, 0xe7, 0xed, 0xe6, 0xff, 0x17, 0xeb, 0x15, 0xf9, 0xfd, 0xfc, 0xf8,
  0xfe, 0xc8, 0xee, 0x0f, 0xda, 0x05, 0xf0, 0x19, 0xe9, 0x1d, 0x13, 0xca,
  0xd0, 0xf0, 0xac, 0x24, 0x10, 0x1b, 0xeb, 0x14, 0xfd, 0xd3, 0xc0, 0xeb,
  0x1c, 0x3a, 0x0c, 0x05, 0xdb, 0xc5, 0xfb, 0x41, 0x08, 0xd4, 0x3f, 0xdb,
  0xfc, 0xdc, 0xfa, 0x3e, 0xf3, 0x14, 0xbc, 0x4e, 0x04, 0xd8, 0x34, 0x03,
  0x12, 0x1a, 0xe6, 0x69, 0xe7, 0xe1, 0xc5, 0x26, 0xed, 0xf7, 0x99, 0xc0,
  0xc6, 0xb7, 0x32, 0x34, 0x18, 0xf2, 0x3e, 0x06, 0xc1, 0xe5, 0xf9, 0x07,
  0xd9, 0xdf, 0xef, 0xf9, 0xd1, 0x1e, 0xea, 0x01, 0x31, 0x11, 0xc8, 0xf8,
  0x27, 0xfc, 0xd9, 0xfe, 0x10, 0x2c, 0xf6, 0x07, 0xdc, 0x1f, 0xfc, 0x1d,
  0xe7, 0xe6, 0x59, 0x24, 0xef, 0x37, 0x06, 0x35, 0x29, 0x1c, 0x3e, 0xdd,
  0x1b, 0xe0, 0x01, 0xf6, 0xbe, 0xde, 0x16, 0xe9, 0x11, 0x07, 0x34, 0xfc,
  0x0b, 0x3e, 0x2d, 0xf6, 0x2f, 0x18, 0x1f, 0xf2, 0xe8, 0x55, 0xc5, 0x25,
  0x25, 0x09, 0x22, 0x0e, 0xfb, 0x1e, 0x11, 0xea, 0xf2, 0xef, 0x00, 0x15,
  0x38, 0xdd, 0x08, 0x16, 0xea, 0xe9, 0xf5, 0xf9, 0x43, 0xd3, 0x0f, 0x0c,
  0x08, 0xe8, 0x25, 0x1f, 0xf6, 0x01, 0xcb, 0xe0, 0x2e, 0xde, 0xdc, 0xcf,
  0xed, 0x24, 0xf9, 0xe5, 0x24, 0xf1, 0xef, 0x16, 0xca, 0x1c, 0x18, 0x1f,
  0xf2, 0xfe, 0x2d, 0xf1, 0xd8, 0x15, 0xf9, 0xeb, 0x17, 0xf3, 0xff, 0xf7,
  0xfd, 0x81, 0xd2, 0x0f, 0xfc, 0xfc, 0xe8, 0xfa, 0x1e, 0xf5, 0xe6, 0x12,
  0x20, 0xea, 0x14, 0xe1, 0xf6, 0x1f, 0x09, 0xe0, 0x1d, 0x09, 0xf4, 0x00,
  0x02, 0x0e, 0x23, 0xf6, 0x1e, 0xe6, 0xf9, 0x0e, 0x04, 0xc9, 0x0e, 0xdc,
  0x10, 0x06, 0xf8, 0x07, 0x0c, 0xe6, 0xf4, 0x2c, 0xe8, 0x29, 0xf3, 0x0b,
  0xf0, 0xf5, 0xe4, 0xf0, 0xd9, 0x12, 0xef, 0x05, 0x05, 0x17, 0xe5, 0xe1,
  0xfa, 0x09, 0x01, 0xfb, 0xfa, 0xfe, 0xf1, 0xeb, 0xfc, 0xe5, 0x21, 0x0d,
  0x34, 0xd3, 0xfc, 0xe2, 0x2d, 0x0f, 0x01, 0xad, 0x22, 0xb2, 0x1e, 0xf6,
  0x11, 0xe3, 0xf8, 0xd1, 0x04, 0x96, 0x2e, 0xe4, 0x17, 0x34, 0x18, 0xc7,
  0x2b, 0xa6, 0x9f, 0xfc, 0x2e, 0xc9, 0xe1, 0xb0, 0x13, 0x1b, 0xe4, 0x0f,
  0xd8, 0x52, 0xbb, 0xd9, 0x0d, 0xeb, 0x21, 0xd0, 0x23, 0x02, 0x0a, 0x07,
  0x1e, 0xf9, 0xc8, 0x19, 0xda, 0x1b, 0xda, 0x1d, 0x04, 0xc5, 0xd9, 0x14,
  0x3b, 0xc0, 0xec, 0xcf, 0xed, 0xf3, 0xcd, 0x19, 0xec, 0xea, 0x0e, 0xd3,
  0x04, 0xca, 0xce, 0xee, 0xfc, 0xed, 0xdc, 0x0e, 0x09, 0xcf, 0xe1, 0xdf,
  0x23, 0x06, 0x14, 0xfe, 0xe1, 0x3a, 0x53, 0x27, 0xfc, 0x1f, 0x06, 0xd8,
  0x0c, 0x2a, 0x25, 0xfa, 0x3d, 0x14, 0x16, 0x02, 0xdd, 0xb6, 0xf4, 0xbc,
  0x09, 0x2f, 0x07, 0xe1, 0x37, 0xee, 0x16, 0xe2, 0x10, 0xcf, 0xfa, 0xd4,
  0x0b, 0xac, 0xce, 0xf9, 0x1f, 0x0c, 0x05, 0x1a, 0xde, 0x15, 0x1c, 0x33,
  0xe6, 0x2c, 0x1e, 0x21, 0xc1, 0x1b, 0x12, 0x13, 0xe3, 0x0d, 0xe9, 0x03,
  0x44, 0xe3, 0x21, 0xa8, 0x16, 0xf7, 0xd5, 0x05, 0x20, 0x7f, 0x39, 0x24,
  0x1a, 0x24, 0x0d, 0x2d, 0x25, 0xd6, 0x07, 0xf1, 0x3b, 0xc0, 0x2c, 0xfd,
  0x0b, 0x1c, 0x2c, 0x2c, 0x1b, 0xe5, 0xf0, 0x36, 0x04, 0xfd, 0x1e, 0xf7,
  0x29, 0xfa, 0x36, 0x22, 0x26, 0x24, 0x6a, 0x31, 0x04, 0x16, 0x17, 0x16,
  0xe3, 0xfd, 0x00, 0xd0, 0xb6, 0xb4, 0xbf, 0x30, 0xd9, 0x22, 0xf2, 0x34,
  0xdd, 0xf4, 0x0f, 0xb2, 0xbe, 0x06, 0xfe, 0xa4, 0xc1, 0xfb, 0xf7, 0x53,
  0x08, 0xfe, 0x1d, 0xfd, 0x17, 0x37, 0x27, 0x0a, 0x07, 0xf0, 0x0b, 0xfb,
  0xd6, 0x0c, 0xde, 0x81, 0x1d, 0xcc, 0x1c, 0xf4, 0xe7, 0x11, 0xd0, 0xfc,
  0x24, 0xb8, 0x2c, 0x2c, 0xd7, 0x19, 0xf8, 0xcc, 0x0e, 0xf7, 0xdc, 0xf6,
  0x1a, 0x15, 0xe8, 0xe0, 0x0f, 0x01, 0xf2, 0xf0, 0x30, 0x40, 0xf0, 0xc4,
  0xec, 0xbd, 0xe5, 0xf5, 0x19, 0x3b, 0x07, 0x17, 0x2a, 0xf0, 0x0d, 0x21,
  0x15, 0x21, 0x2f, 0x10, 0xfa, 0xed, 0xf7, 0x28, 0xfd, 0xc8, 0xe9, 0xd8,
  0x17, 0xf4, 0xd9, 0xea, 0xe6, 0x0d, 0x27, 0x0c, 0x0d, 0xf7, 0x19, 0x1e,
  0xf5, 0x27, 0xf6, 0x33, 0xf4, 0xf7, 0x2f, 0x37, 0xe7, 0x1d, 0x49, 0xf2,
  0x0d, 0xe0, 0xf9, 0xf6, 0xf2, 0x09, 0x00, 0x0a, 0x0d, 0x14, 0xec, 0x03,
  0xe9, 0xeb, 0x0c, 0xf2, 0x24, 0x0b, 0x0e, 0xe9, 0xef, 0xda, 0xc2, 0xe9,
  0xca, 0xd5, 0xd8, 0xe9, 0xf1, 0x18, 0xea, 0xde, 0x0e, 0xac, 0xb4, 0x19,
  0xc9, 0xf8, 0xdf, 0xeb, 0x17, 0xfd, 0xe7, 0xc7, 0xd0, 0xfe, 0xf9, 0xe9,
  0x19, 0x08, 0x06, 0xd5, 0x07, 0xfc, 0x17, 0x04, 0x0e, 0xda, 0x01, 0xdc,
  0xf0, 0xf8, 0x0f, 0x19, 0x15, 0x2b, 0x01, 0x11, 0x1e, 0x3d, 0x29, 0x0e,
  0xdd, 0x09, 0x30, 0xfd, 0xc7, 0xfe, 0xce, 0xe8, 0xf0, 0xfd, 0xd2, 0xc0,
  0x05, 0xdc, 0xcf, 0xff, 0x16, 0xdb, 0x22, 0x02, 0xce, 0x14, 0xc1, 0x18,
  0x0b, 0x56, 0x3e, 0xeb, 0x28, 0x08, 0xf6, 0x15, 0xf6, 0xeb, 0xe8, 0x02,
  0x23, 0x2f, 0xed, 0x3c, 0x03, 0x32, 0xe4, 0x01, 0xf5, 0x1e, 0x12, 0x0f,
  0xef, 0x21, 0xfb, 0x07, 0xdf, 0xce, 0xee, 0xeb, 0x07, 0x06, 0x42, 0xdf,
  0x0d, 0xf4, 0xf6, 0xfc, 0xf7, 0x07, 0x03, 0x0b, 0x26, 0xd5, 0x1a, 0xec,
  0x2a, 0xf6, 0x1f, 0x2a, 0x15, 0x0a, 0x1d, 0x15, 0xee, 0xda, 0xf5, 0x0a,
  0x18, 0x13, 0x07, 0xca, 0x1c, 0xe1, 0xc4, 0x1c, 0xe7, 0xfa, 0x0c, 0x21,
  0x1b, 0x0e, 0xfb, 0xff, 0xf9, 0xf6, 0xe8, 0xfc, 0xde, 0x0a, 0x10, 0xe1,
  0xfc, 0x03, 0x15, 0x15, 0xe8, 0xfc, 0x18, 0xf7, 0x1b, 0x04, 0xf8, 0xfe,
  0xf0, 0x2b, 0xf6, 0xee, 0x24, 0xe8, 0x01, 0x1f, 0xee, 0x01, 0x0a, 0xe2,
  0xe5, 0x24, 0xc7, 0x1d, 0x25, 0x09, 0x0c, 0xa3, 0x09, 0x0e, 0xd8, 0xca,
  0xfc, 0x08, 0xf2, 0xf6, 0xe9, 0xe3, 0xc1, 0xd4, 0x11, 0x81, 0xf3, 0x0d,
  0xf5, 0xc9, 0xeb, 0xf7, 0xe6, 0x18, 0x15, 0xdc, 0xf6, 0x06, 0xeb, 0x13,
  0xe8, 0x05, 0xfe, 0xc9, 0x18, 0xea, 0xf8, 0xde, 0x1b, 0x20, 0xe2, 0xd3,
  0xea, 0xe5, 0x05, 0x1c, 0xfc, 0xd1, 0x12, 0xeb, 0x11, 0xfa, 0xff, 0x1e,
  0xf4, 0xf7, 0xe1, 0xd1, 0xf4, 0xdc, 0xe9, 0x12, 0xdf, 0xed, 0x2a, 0xe6,
  0x15, 0xd7, 0x02, 0xea, 0xe4, 0x02, 0xe5, 0xfe, 0xf1, 0xed, 0x23, 0x1d,
  0x11, 0xfc, 0x21, 0xe4, 0xec, 0xfb, 0xee, 0xfa, 0xe1, 0xed, 0xe1, 0x04,
  0xeb, 0xf8, 0xde, 0x25, 0xf2, 0xfe, 0xed, 0xdb, 0x0d, 0x0c, 0xc5, 0xf6,
  0x18, 0x1d, 0xef, 0xf0, 0xf2, 0xfb, 0xc3, 0xfd, 0x06, 0xf9, 0x08, 0xf1,
  0xff, 0xe3, 0x19, 0x10, 0x0f, 0x0d, 0xdd, 0xe9, 0x02, 0xe7, 0xf6, 0x0b,
  0x13, 0x0e, 0x14, 0xe8, 0xfc, 0xf5, 0xe4, 0xed, 0x0e, 0x13, 0xfb, 0xee,
  0x08, 0xed, 0x00, 0x0e, 0x14, 0xb9, 0x1d, 0xec, 0xe5, 0xeb, 0xf7, 0x1c,
  0xe6, 0x08, 0x03, 0x0a, 0x01, 0xdf, 0x09, 0xc8, 0x32, 0x9f, 0xe9, 0x03,
  0x1e, 0x1d, 0x11, 0x37, 0x0c, 0x10, 0xdb, 0xee, 0xd8, 0xd1, 0x2d, 0x19,
  0x22, 0x47, 0xed, 0x13, 0x18, 0xdc, 0xe0, 0x46, 0xc8, 0x08, 0xf4, 0x25,
  0xcc, 0x2c, 0xda, 0x1f, 0x2e, 0x20, 0x03, 0x23, 0xeb, 0xf7, 0x1a, 0xd4,
  0x2d, 0xdf, 0x07, 0x1b, 0x10, 0xe0, 0xcb, 0xf6, 0xdb, 0xc3, 0x3d, 0x03,
  0xf3, 0xe5, 0x1c, 0xe3, 0xda, 0xf0, 0x09, 0x03, 0xe2, 0x1c, 0xa6, 0xb3,
  0x0b, 0xd0, 0xcf, 0xb9, 0x0f, 0x19, 0xf8, 0xb8, 0x23, 0xc5, 0xe4, 0x3c,
  0xf7, 0x03, 0xcd, 0xa6, 0xf3, 0xf1, 0xb8, 0x23, 0x37, 0x7f, 0xf1, 0xe3,
  0x0c, 0x1e, 0xe3, 0x0c, 0x14, 0x1a, 0x17, 0xd7, 0xce, 0xff, 0x26, 0x0f,
  0x05, 0xe6, 0xea, 0xf7, 0x2f, 0xd0, 0x2b, 0x05, 0xf9, 0x03, 0xed, 0x9e,
  0x10, 0xfb, 0xb0, 0x26, 0x07, 0xb3, 0x22, 0xb9, 0x18, 0xde, 0x06, 0xe8,
  0x06, 0xda, 0xeb, 0xd9, 0x1c, 0xdf, 0x19, 0xfc, 0x0c, 0x0f, 0x01, 0x01,
  0xda, 0xc5, 0xf8, 0xec, 0x1b, 0x13, 0xfd, 0xcd, 0xfb, 0xdf, 0x04, 0xff,
  0x21, 0x02, 0xf9, 0xcf, 0x25, 0x19, 0xfa, 0x1b, 0x08, 0x1c, 0x34, 0xf1,
  0xe3, 0x08, 0xec, 0x28, 0x20, 0x06, 0xe9, 0x20, 0xe8, 0x02, 0xeb, 0xd9,
  0x0f, 0x1b, 0xf9, 0x17, 0xf2, 0xeb, 0xf8, 0x00, 0x29, 0x42, 0x0a, 0x2c,
  0x08, 0x18, 0xf8, 0xf0, 0xfe, 0x0a, 0x0f, 0x11, 0xda, 0xe8, 0x3c, 0xa7,
  0xef, 0x3b, 0x00, 0x01, 0x04, 0xfd, 0x31, 0xdf, 0xf4, 0x28, 0x39, 0x2f,
  0x05, 0xe5, 0x3e, 0x10, 0xd6, 0xb7, 0xfa, 0xb0, 0x24, 0x10, 0x1f, 0xf4,
  0x10, 0xe6, 0x19, 0xee, 0xd1, 0x07, 0xde, 0xca, 0x26, 0xfd, 0xef, 0xcb,
  0xc0, 0xcf, 0x1b, 0x00, 0x04, 0xf0, 0xd7, 0x23, 0xe7, 0xa3, 0xd0, 0x28,
  0xf9, 0xfa, 0xd6, 0x3f, 0x24, 0xfd, 0xe6, 0x36, 0x08, 0xf9, 0x24, 0xd3,
  0xf7, 0x55, 0x2a, 0x1d, 0x29, 0x00, 0xfe, 0x04, 0xe3, 0xf6, 0xf6, 0x05,
  0x16, 0xd9, 0xe8, 0x2e, 0x04, 0x0e, 0x18, 0xef, 0xeb, 0xfb, 0xf3, 0x34,
  0x1f, 0xf5, 0xe5, 0x08, 0xf6, 0x0c, 0xe9, 0x04, 0xa9, 0xfc, 0x1b, 0x3f,
  0x2d, 0x02, 0xeb, 0x1f, 0x1c, 0xbb, 0xf3, 0x0d, 0xd8, 0xe1, 0x13, 0x08,
  0xf8, 0xe7, 0x9e, 0xfc, 0x28, 0xea, 0xd6, 0x2f, 0xf5, 0x0c, 0x32, 0xda,
  0x35, 0x1a, 0xd0, 0xd5, 0xf9, 0xd5, 0x00, 0x57, 0xe9, 0x06, 0x07, 0x30,
  0x5a, 0xfb, 0x02, 0xd4, 0x16, 0xf0, 0x24, 0xfb, 0x1f, 0x3a, 0xb8, 0x0e,
  0x66, 0xf1, 0x11, 0x58, 0x03, 0xe5, 0xef, 0xec, 0xbb, 0x0d, 0xbe, 0x22,
  0x31, 0x0b, 0xe1, 0xf3, 0xfc, 0x1f, 0x0e, 0xf6, 0xf4, 0x0b, 0xfc, 0x4c,
  0x16, 0x24, 0xdd, 0xe2, 0xf3, 0xc0, 0xf0, 0x21, 0x2a, 0x02, 0x1d, 0x0b,
  0x08, 0xfe, 0xe8, 0xf1, 0xe8, 0x15, 0x3b, 0xcd, 0x15, 0x11, 0xe1, 0xee,
  0x14, 0x15, 0x26, 0x04, 0xe4, 0x04, 0x03, 0xdf, 0x01, 0x18, 0xf2, 0x0e,
  0xeb, 0x3f, 0xad, 0xd8, 0xe7, 0x35, 0xfb, 0xb0, 0x22, 0xf3, 0xdd, 0x01,
  0xfe, 0xcf, 0x37, 0xb8, 0x49, 0xfb, 0x15, 0xcb, 0x18, 0x3a, 0x0f, 0x15,
  0xb7, 0x81, 0xfb, 0xea, 0x0b, 0x22, 0x20, 0xfc, 0x21, 0x13, 0xa9, 0xed,
  0xe6, 0x21, 0x0b, 0xfa, 0x5a, 0xfa, 0xff, 0xff, 0x04, 0x00, 0x00, 0x00,
  0x20, 0x00, 0x00, 0x00, 0x03, 0x00, 0x00, 0x00, 0xfc, 0xff, 0xff, 0xff,
  0x02, 0x00, 0x00, 0x00, 0x03, 0x00, 0x00, 0x00, 0xff, 0xff, 0xff, 0xff,
  0xfe, 0xff, 0xff, 0xff, 0x06, 0x00, 0x00, 0x00, 0x0a, 0x00, 0x00, 0x00,
  0x86, 0xfa, 0xff, 0xff, 0x04, 0x00, 0x00, 0x00, 0x00, 0x03, 0x00, 0x00,
  0x42, 0x59, 0x1a, 0x32, 0x9a, 0x43, 0x23, 0x02, 0x81, 0xd7, 0xe2, 0xa3,
  0xe2, 0x7f, 0xcb, 0x99, 0x73, 0x5b, 0xad, 0x50, 0xc6, 0xfd, 0xff, 0x2f,
  0x39, 0x12, 0xed, 0x4b, 0xf5, 0x3b, 0xe5, 0xd7, 0xb7, 0xd7, 0xe6, 0xfc,
  0xf8, 0xf1, 0x47, 0xf8, 0x1e, 0x69, 0xf9, 0x11, 0xed, 0xba, 0xd4, 0x81,
  0x01, 0x3c, 0xd3, 0xd7, 0xc0, 0x2f, 0xf6, 0xdb, 0xb4, 0xd0, 0x18, 0x1e,
  0xf5, 0xf2, 0x81, 0xd3, 0xe5, 0xe9, 0x3a, 0xd0, 0xb4, 0x2a, 0x1f, 0x31,
  0xd8, 0xf8, 0xdc, 0x35, 0xe5, 0x32, 0x29, 0xfa, 0x53, 0xf8, 0x08, 0xa3,
  0x03, 0x1b, 0x0f, 0x8f, 0xbe, 0xfa, 0x16, 0xb8, 0x81, 0x9a, 0x3d, 0x1a,
  0xff, 0xc6, 0x81, 0x9d, 0x12, 0xf5, 0x38, 0xa7, 0xcd, 0x3c, 0x96, 0xdd,
  0xe3, 0x5b, 0xf1, 0xae, 0xe1, 0x2e, 0x3f, 0x4b, 0xc0, 0xeb, 0x27, 0xea,
  0xdf, 0x12, 0x19, 0x20, 0xd8, 0xfd, 0xfc, 0x1b, 0xf9, 0xc4, 0xd9, 0x20,
  0xd6, 0xc4, 0xe8, 0x0b, 0x18, 0xf6, 0xfe, 0x07, 0x16, 0xe9, 0x81, 0xb7,
  0xff, 0xb2, 0xff, 0xf8, 0x81, 0xba, 0xfc, 0x92, 0xc5, 0x78, 0xbb, 0x2b,
  0x27, 0xdd, 0x64, 0x64, 0xa0, 0xd5, 0x40, 0x8e, 0x01, 0xe5, 0xe7, 0xe7,
  0xf0, 0x81, 0xdc, 0x3c, 0xcb, 0x10, 0x2d, 0xde, 0xef, 0x50, 0xa6, 0x64,
  0x3e, 0x32, 0xaa, 0x8e, 0xa9, 0xf3, 0x1a, 0x3c, 0x4a, 0xbb, 0xea, 0xea,
  0x37, 0xd1, 0x13, 0xb4, 0x0e, 0x10, 0xe2, 0xe5, 0x2e, 0x0f, 0x4c, 0x05,
  0x2e, 0x40, 0x90, 0xee, 0xa9, 0xce, 0x05, 0x02, 0x00, 0x81, 0xf9, 0x2d,
  0xf8, 0xa0, 0x48, 0x0f, 0xd1, 0xcb, 0x4e, 0xf6, 0x24, 0xaf, 0xb9, 0x81,
  0x05, 0xe5, 0x66, 0x94, 0x2e, 0x79, 0x41, 0x4f, 0x44, 0x31, 0xc7, 0xe4,
  0xb4, 0xb1, 0xf9, 0x0a, 0xe6, 0xca, 0x2c, 0xcf, 0x1a, 0xc7, 0xf9, 0xc8,
  0x20, 0xcf, 0xc3, 0x05, 0x30, 0x04, 0xf4, 0xcb, 0x02, 0x81, 0x1e, 0x43,
  0x81, 0x27, 0x0e, 0x13, 0x26, 0x1a, 0xba, 0x0d, 0xcf, 0xcd, 0x09, 0xfe,
  0x21, 0x2a, 0x32, 0xd9, 0x04, 0xa6, 0x87, 0xc5, 0xce, 0x14, 0xfb, 0xa9,
  0xd9, 0x1e, 0x26, 0xe6, 0xff, 0x3b, 0x0a, 0x0e, 0x20, 0xc8, 0xc8, 0x3a,
  0x15, 0xfd, 0x2c, 0xef, 0x1b, 0x32, 0x81, 0xfc, 0xf4, 0xe2, 0xb5, 0xf1,
  0xe6, 0x11, 0x0d, 0x7f, 0x38, 0x6e, 0x25, 0xd2, 0x58, 0x5b, 0x69, 0x47,
  0x2a, 0xfa, 0xfc, 0x03, 0xd7, 0x8f, 0xd5, 0xec, 0xa2, 0x3e, 0xc4, 0x20,
  0xde, 0xf7, 0xe4, 0x3c, 0x2c, 0x81, 0x27, 0x25, 0xf9, 0x1d, 0x01, 0xd7,
  0xb7, 0xcd, 0x3c, 0xdc, 0x1b, 0xa6, 0x31, 0x3d, 0xd7, 0x06, 0x33, 0x9f,
  0x84, 0xc5, 0xb1, 0xcf, 0x0b, 0x4d, 0x27, 0x40, 0xfc, 0x4d, 0xf0, 0xa4,
  0xec, 0xc4, 0x31, 0x81, 0xae, 0xbf, 0x28, 0xef, 0x8d, 0xac, 0x20, 0xab,
  0xfe, 0x06, 0xf5, 0x16, 0xad, 0xf7, 0xef, 0xe6, 0xe1, 0xac, 0x44, 0xfc,
  0x22, 0xd7, 0x0c, 0x91, 0xbb, 0xe0, 0xc6, 0x81, 0xe3, 0xda, 0x38, 0x33,
  0x89, 0x02, 0xa5, 0x11, 0xfc, 0x4f, 0x3e, 0x27, 0x20, 0x00, 0x06, 0xb7,
  0x42, 0xf3, 0x81, 0x07, 0xb0, 0x41, 0xc0, 0xfe, 0xde, 0x2c, 0xf3, 0xab,
  0x81, 0xa7, 0x14, 0xd8, 0xe1, 0x07, 0x3d, 0xe2, 0xbc, 0xe6, 0xea, 0xbe,
  0x94, 0xde, 0xdb, 0x09, 0xf2, 0xd3, 0x22, 0xa0, 0x0f, 0x8a, 0xd5, 0x10,
  0xf5, 0x03, 0xc1, 0xe3, 0xc5, 0x30, 0x11, 0x1e, 0xe1, 0x81, 0xd8, 0x2c,
  0x05, 0xdc, 0x2f, 0xe5, 0x2d, 0xff, 0xdb, 0xed, 0x1a, 0xcd, 0xc7, 0x0b,
  0x85, 0x2c, 0xbd, 0xe4, 0x4a, 0x2f, 0x1f, 0x81, 0x3d, 0xc0, 0xfd, 0xea,
  0x23, 0xe6, 0x38, 0x02, 0xa9, 0xf5, 0xad, 0x3b, 0x19, 0xa8, 0x0a, 0xb7,
  0xb3, 0x37, 0xf2, 0xa8, 0x8e, 0x1f, 0x94, 0xc6, 0xc6, 0xff, 0xd5, 0x9b,
  0xf5, 0x08, 0xa6, 0x81, 0xda, 0xfc, 0xab, 0x0d, 0xda, 0x06, 0x94, 0x5c,
  0x5f, 0x4e, 0x4d, 0x32, 0x48, 0x53, 0x6d, 0x54, 0x2b, 0x21, 0x5f, 0xc7,
  0x52, 0x30, 0x9e, 0x50, 0x8e, 0x81, 0x11, 0x35, 0x08, 0xf2, 0xca, 0x94,
  0x3f, 0x56, 0xc6, 0x22, 0x1f, 0x1b, 0xf4, 0x1e, 0x13, 0xd7, 0xf5, 0xf0,
  0xff, 0xfd, 0x41, 0x21, 0xec, 0x3b, 0x81, 0xd2, 0xfe, 0x3e, 0xc5, 0xcf,
  0x88, 0x73, 0xa9, 0xa9, 0xe8, 0x20, 0x83, 0xf6, 0xae, 0x81, 0x1c, 0x34,
  0xe6, 0x18, 0xa6, 0x5c, 0xee, 0x68, 0x0e, 0x9e, 0x04, 0xf9, 0x57, 0x11,
  0xc7, 0xdb, 0xfe, 0xeb, 0x11, 0x11, 0x81, 0xb7, 0x06, 0x1f, 0x26, 0xb5,
  0x27, 0x01, 0x06, 0x06, 0x23, 0xcc, 0xb4, 0x2a, 0xf0, 0xa3, 0xf6, 0x1f,
  0x18, 0x12, 0x60, 0x9e, 0x26, 0x5f, 0xfa, 0xb5, 0xc1, 0xe4, 0xc2, 0x3e,
  0x81, 0xf3, 0xa7, 0x33, 0x3f, 0xc7, 0xa7, 0x47, 0xc2, 0x05, 0xde, 0xbe,
  0x23, 0xe2, 0xdd, 0x18, 0x0f, 0x26, 0x13, 0xc1, 0x9f, 0xd9, 0x23, 0xa0,
  0x29, 0xdd, 0xf9, 0x00, 0x20, 0xc1, 0xe9, 0x28, 0x08, 0x81, 0xae, 0x1e,
  0xd2, 0xdd, 0xfe, 0xa8, 0x2c, 0x2c, 0x24, 0xf7, 0xf7, 0x6b, 0x94, 0x81,
  0xaa, 0x10, 0xdf, 0xf2, 0x3a, 0x03, 0xd8, 0x01, 0xeb, 0x3c, 0xd6, 0x36,
  0x3d, 0xdb, 0xaf, 0xf9, 0xa5, 0x81, 0x0e, 0x16, 0xc0, 0x4d, 0x47, 0xed,
  0x17, 0xf6, 0xec, 0xca, 0xc1, 0x56, 0x09, 0x1b, 0x24, 0x24, 0x90, 0x0d,
  0xd6, 0xdf, 0x00, 0xf8, 0xc6, 0x81, 0xf8, 0x03, 0x1f, 0xf7, 0xe7, 0xf6,
  0x96, 0xd5, 0x11, 0x12, 0x15, 0xcc, 0x09, 0xdc, 0xe4, 0xfd, 0x1b, 0xfd,
  0xc6, 0x16, 0xfa, 0x18, 0x37, 0x81, 0x47, 0xf2, 0x2c, 0x16, 0x73, 0xff,
  0x01, 0xfc, 0xef, 0x32, 0x07, 0xc7, 0xd8, 0xf3, 0x03, 0xe6, 0xe9, 0xe0,
  0x92, 0xfd, 0xff, 0xff, 0x04, 0x00, 0x00, 0x00, 0x80, 0x00, 0x00, 0x00,
  0x12, 0x00, 0x00, 0x00, 0x02, 0x00, 0x00, 0x00, 0xfa, 0xff, 0xff, 0xff,
  0xf8, 0xff, 0xff, 0xff, 0xe9, 0xff, 0xff, 0xff, 0xff, 0xff, 0xff, 0xff,
  0x0e, 0x00, 0x00, 0x00, 0x05, 0x00, 0x00, 0x00, 0xf7, 0xff, 0xff, 0xff,
  0x0f, 0x00, 0x00, 0x00, 0x05, 0x00, 0x00, 0x00, 0xf1, 0xff, 0xff, 0xff,
  0x0b, 0x00, 0x00, 0x00, 0x0d, 0x00, 0x00, 0x00, 0x08, 0x00, 0x00, 0x00,
  0xf1, 0xff, 0xff, 0xff, 0xfb, 0xff, 0xff, 0xff, 0xf5, 0xff, 0xff, 0xff,
  0x04, 0x00, 0x00, 0x00, 0x06, 0x00, 0x00, 0x00, 0xf4, 0xff, 0xff, 0xff,
  0xfe, 0xff, 0xff, 0xff, 0x16, 0x00, 0x00, 0x00, 0x09, 0x00, 0x00, 0x00,
  0x0e, 0x00, 0x00, 0x00, 0x05, 0x00, 0x00, 0x00, 0xed, 0xff, 0xff, 0xff,
  0xfa, 0xff, 0xff, 0xff, 0xff, 0xff, 0xff, 0xff, 0xf8, 0xff, 0xff, 0xff,
  0x0a, 0x00, 0x00, 0x00, 0x07, 0x00, 0x00, 0x00, 0x1e, 0xfe, 0xff, 0xff,
  0x04, 0x00, 0x00, 0x00, 0x80, 0x01, 0x00, 0x00, 0x09, 0xf8, 0x01, 0xc9,
  0xf9, 0x17, 0x20, 0x10, 0x17, 0x25, 0xfb, 0x29, 0x19, 0xed, 0xf6, 0xf9,
  0xf1, 0xff, 0x81, 0xf9, 0x41, 0x31, 0x1c, 0xe9, 0x64, 0xd4, 0xf9, 0xf4,
  0x09, 0x1d, 0x0e, 0xfa, 0xcc, 0x07, 0x2c, 0x18, 0x07, 0xda, 0xe9, 0xf4,
  0x04, 0xe6, 0x0b, 0x61, 0xff, 0x15, 0x19, 0xbd, 0xf0, 0x39, 0x1f, 0x0e,
  0x2b, 0xf6, 0x1f, 0x43, 0x14, 0x96, 0xf2, 0x0c, 0x4a, 0x1c, 0x0c, 0x26,
  0x1a, 0x05, 0x12, 0x0e, 0xd9, 0xff, 0x0d, 0x1e, 0x04, 0x21, 0x1a, 0x13,
  0x23, 0xf3, 0x05, 0xd9, 0xea, 0x90, 0x32, 0x0f, 0xe9, 0xef, 0x0f, 0xea,
  0xd6, 0xef, 0x02, 0xf4, 0x00, 0x13, 0xfd, 0x13, 0xd4, 0xe9, 0x61, 0x56,
  0x2d, 0xda, 0x09, 0x03, 0xf2, 0x0e, 0xf6, 0x28, 0xfe, 0xe6, 0x34, 0x2b,
  0xcc, 0x36, 0x06, 0x0a, 0x1c, 0xe9, 0x0c, 0xfa, 0xe7, 0x27, 0xfe, 0xf8,
  0xf1, 0xf4, 0x34, 0xec, 0xf7, 0x10, 0xd1, 0x37, 0x19, 0xf7, 0xf3, 0x0d,
  0xd9, 0xf2, 0x19, 0x14, 0x0f, 0xef, 0xcd, 0xc5, 0x28, 0x31, 0x28, 0x05,
  0x0b, 0x05, 0xe5, 0x1e, 0xf9, 0x03, 0x00, 0xe6, 0x2c, 0xe2, 0x02, 0xeb,
  0x1e, 0x19, 0x08, 0x33, 0xdb, 0xf5, 0x5e, 0x2f, 0x00, 0xe4, 0x36, 0xc2,
  0x0b, 0x0c, 0xd9, 0x26, 0x41, 0xf9, 0xd1, 0xfe, 0xdb, 0x30, 0x1e, 0xff,
  0x07, 0x48, 0xca, 0x2c, 0xe8, 0xf6, 0xf9, 0xe0, 0x31, 0x28, 0x9a, 0xe6,
  0xd1, 0x13, 0x20, 0x14, 0xe9, 0x03, 0x01, 0x48, 0xd1, 0xfa, 0xe8, 0x0b,
  0xb4, 0x1c, 0x41, 0xeb, 0xd3, 0x16, 0xdd, 0xdb, 0x35, 0xc8, 0xd6, 0xf5,
  0xe5, 0x3e, 0x2f, 0x09, 0x02, 0x25, 0x09, 0xed, 0xfb, 0xcd, 0x1e, 0xf9,
  0x01, 0xd2, 0x2a, 0x06, 0x1d, 0x1c, 0xfe, 0x53, 0xd3, 0x11, 0xe6, 0x31,
  0x3a, 0xfd, 0x0c, 0x04, 0x1c, 0x2e, 0x1f, 0xfd, 0xf9, 0xd8, 0x2c, 0xfe,
  0xe5, 0xe0, 0xba, 0xf2, 0x62, 0x44, 0xff, 0x2c, 0x22, 0xfc, 0x42, 0x07,
  0x20, 0x0c, 0x13, 0xf3, 0xa8, 0xc5, 0xe3, 0x19, 0x59, 0xd1, 0x22, 0x05,
  0x29, 0x04, 0xf3, 0x2e, 0x0f, 0x4b, 0xf9, 0x1c, 0xd3, 0xea, 0x09, 0xd8,
  0x0f, 0x1e, 0x4b, 0x1f, 0x09, 0xf3, 0xc8, 0x13, 0xdc, 0x04, 0xfd, 0x03,
  0x9c, 0xc5, 0x28, 0x0e, 0x12, 0xeb, 0x09, 0xee, 0xf0, 0x14, 0x38, 0x33,
  0xe7, 0xfb, 0x13, 0xe6, 0x15, 0x1b, 0xec, 0x05, 0xd4, 0xf2, 0xc6, 0xeb,
  0x00, 0x2a, 0x0f, 0xe9, 0xf1, 0x09, 0xdf, 0x01, 0xf3, 0xec, 0x04, 0xf5,
  0xfd, 0x1a, 0xf2, 0x07, 0xfe, 0xfe, 0x27, 0xe5, 0x38, 0xd2, 0x00, 0x0c,
  0xd3, 0xf2, 0xe5, 0xf3, 0xc2, 0x00, 0x25, 0x52, 0x06, 0x0e, 0xdc, 0x09,
  0x20, 0x22, 0x23, 0xab, 0xf1, 0xdf, 0x39, 0xf0, 0xf6, 0xf8, 0x27, 0x24,
  0xe4, 0x1e, 0xc4, 0xa5, 0x4d, 0xa6, 0x19, 0x13, 0xaa, 0xff, 0xff, 0xff,
  0x04, 0x00, 0x00, 0x00, 0x04, 0x00, 0x00, 0x00, 0x32, 0x00, 0x00, 0x00,
  0xba, 0xff, 0xff, 0xff, 0x04, 0x00, 0x00, 0x00, 0x08, 0x00, 0x00, 0x00,
  0xff, 0xff, 0xff, 0xff, 0x80, 0x01, 0x00, 0x00, 0xce, 0xff, 0xff, 0xff,
  0x04, 0x00, 0x00, 0x00, 0x0c, 0x00, 0x00, 0x00, 0xff, 0xff, 0xff, 0xff,
  0x0c, 0x00, 0x00, 0x00, 0x08, 0x00, 0x00, 0x00, 0xe6, 0xff, 0xff, 0xff,
  0x04, 0x00, 0x00, 0x00, 0x0c, 0x00, 0x00, 0x00, 0xff, 0xff, 0xff, 0xff,
  0x0c, 0x00, 0x00, 0x00, 0x20, 0x00, 0x00, 0x00, 0x00, 0x00, 0x06, 0x00,
  0x08, 0x00, 0x04, 0x00, 0x06, 0x00, 0x00, 0x00, 0x04, 0x00, 0x00, 0x00,
  0x04, 0x00, 0x00, 0x00, 0xfd, 0xff, 0xff, 0xff, 0x18, 0xe9, 0xff, 0xff,
  0x1c, 0xe9, 0xff, 0xff, 0x0f, 0x00, 0x00, 0x00, 0x4d, 0x4c, 0x49, 0x52,
  0x20, 0x43, 0x6f, 0x6e, 0x76, 0x65, 0x72, 0x74, 0x65, 0x64, 0x2e, 0x00,
  0x01, 0x00, 0x00, 0x00, 0x14, 0x00, 0x00, 0x00, 0x00, 0x00, 0x0e, 0x00,
  0x18, 0x00, 0x14, 0x00, 0x10, 0x00, 0x0c, 0x00, 0x08, 0x00, 0x04, 0x00,
  0x0e, 0x00, 0x00, 0x00, 0x14, 0x00, 0x00, 0x00, 0x1c, 0x00, 0x00, 0x00,
  0xac, 0x02, 0x00, 0x00, 0xb0, 0x02, 0x00, 0x00, 0xb4, 0x02, 0x00, 0x00,
  0x04, 0x00, 0x00, 0x00, 0x6d, 0x61, 0x69, 0x6e, 0x00, 0x00, 0x00, 0x00,
  0x0c, 0x00, 0x00, 0x00, 0x74, 0x02, 0x00, 0x00, 0x34, 0x02, 0x00, 0x00,
  0xd4, 0x01, 0x00, 0x00, 0xac, 0x01, 0x00, 0x00, 0x6c, 0x01, 0x00, 0x00,
  0x28, 0x01, 0x00, 0x00, 0x00, 0x01, 0x00, 0x00, 0xcc, 0x00, 0x00, 0x00,
  0x88, 0x00, 0x00, 0x00, 0x60, 0x00, 0x00, 0x00, 0x28, 0x00, 0x00, 0x00,
  0x04, 0x00, 0x00, 0x00, 0x82, 0xfe, 0xff, 0xff, 0x0c, 0x00, 0x00, 0x00,
  0x10, 0x00, 0x00, 0x00, 0x05, 0x00, 0x00, 0x00, 0x01, 0x00, 0x00, 0x00,
  0x18, 0x00, 0x00, 0x00, 0x01, 0x00, 0x00, 0x00, 0x17, 0x00, 0x00, 0x00,
  0x26, 0xfe, 0xff, 0xff, 0x14, 0x00, 0x00, 0x00, 0x00, 0x00, 0x00, 0x08,
  0x10, 0x00, 0x00, 0x00, 0x14, 0x00, 0x00, 0x00, 0x04, 0x00, 0x00, 0x00,
  0xdc, 0xe9, 0xff, 0xff, 0x01, 0x00, 0x00, 0x00, 0x17, 0x00, 0x00, 0x00,
  0x03, 0x00, 0x00, 0x00, 0x16, 0x00, 0x00, 0x00, 0x06, 0x00, 0x00, 0x00,
  0x05, 0x00, 0x00, 0x00, 0xd6, 0xfe, 0xff, 0xff, 0x0c, 0x00, 0x00, 0x00,
  0x10, 0x00, 0x00, 0x00, 0x03, 0x00, 0x00, 0x00, 0x01, 0x00, 0x00, 0x00,
  0x16, 0x00, 0x00, 0x00, 0x02, 0x00, 0x00, 0x00, 0x15, 0x00, 0x00, 0x00,
  0x04, 0x00, 0x00, 0x00, 0x7e, 0xfe, 0xff, 0xff, 0x14, 0x00, 0x00, 0x00,
  0x00, 0x00, 0x00, 0x01, 0x1c, 0x00, 0x00, 0x00, 0x20, 0x00, 0x00, 0x00,
  0x02, 0x00, 0x00, 0x00, 0xcc, 0xfe, 0xff, 0xff, 0x00, 0x00, 0x00, 0x01,
  0x01, 0x00, 0x00, 0x00, 0x01, 0x00, 0x00, 0x00, 0x01, 0x00, 0x00, 0x00,
  0x15, 0x00, 0x00, 0x00, 0x03, 0x00, 0x00, 0x00, 0x14, 0x00, 0x00, 0x00,
  0x08, 0x00, 0x00, 0x00, 0x07, 0x00, 0x00, 0x00, 0xbe, 0xfe, 0xff, 0xff,
  0x14, 0x00, 0x00, 0x00, 0x00, 0x00, 0x00, 0x34, 0x10, 0x00, 0x00, 0x00,
  0x14, 0x00, 0x00, 0x00, 0x01, 0x00, 0x00, 0x00, 0x74, 0xea, 0xff, 0xff,
  0x01, 0x00, 0x00, 0x00, 0x14, 0x00, 0x00, 0x00, 0x02, 0x00, 0x00, 0x00,
  0x13, 0x00, 0x00, 0x00, 0x01, 0x00, 0x00, 0x00, 0x6a, 0xff, 0xff, 0xff,
  0x0c, 0x00, 0x00, 0x00, 0x10, 0x00, 0x00, 0x00, 0x03, 0x00, 0x00, 0x00,
  0x01, 0x00, 0x00, 0x00, 0x13, 0x00, 0x00, 0x00, 0x02, 0x00, 0x00, 0x00,
  0x12, 0x00, 0x00, 0x00, 0x03, 0x00, 0x00, 0x00, 0x12, 0xff, 0xff, 0xff,
  0x14, 0x00, 0x00, 0x00, 0x00, 0x00, 0x00, 0x01, 0x1c, 0x00, 0x00, 0x00,
  0x20, 0x00, 0x00, 0x00, 0x02, 0x00, 0x00, 0x00, 0x60, 0xff, 0xff, 0xff,
  0x00, 0x00, 0x00, 0x01, 0x01, 0x00, 0x00, 0x00, 0x01, 0x00, 0x00, 0x00,
  0x01, 0x00, 0x00, 0x00, 0x12, 0x00, 0x00, 0x00, 0x03, 0x00, 0x00, 0x00,
  0x11, 0x00, 0x00, 0x00, 0x0a, 0x00, 0x00, 0x00, 0x09, 0x00, 0x00, 0x00,
  0x52, 0xff, 0xff, 0xff, 0x14, 0x00, 0x00, 0x00, 0x00, 0x00, 0x00, 0x34,
  0x10, 0x00, 0x00, 0x00, 0x14, 0x00, 0x00, 0x00, 0x01, 0x00, 0x00, 0x00,
  0x08, 0xeb, 0xff, 0xff, 0x01, 0x00, 0x00, 0x00, 0x11, 0x00, 0x00, 0x00,
  0x02, 0x00, 0x00, 0x00, 0x10, 0x00, 0x00, 0x00, 0x01, 0x00, 0x00, 0x00,
  0x00, 0x00, 0x0a, 0x00, 0x10, 0x00, 0x0c, 0x00, 0x08, 0x00, 0x04, 0x00,
  0x0a, 0x00, 0x00, 0x00, 0x0c, 0x00, 0x00, 0x00, 0x10, 0x00, 0x00, 0x00,
  0x03, 0x00, 0x00, 0x00, 0x01, 0x00, 0x00, 0x00, 0x10, 0x00, 0x00, 0x00,
  0x02, 0x00, 0x00, 0x00, 0x0f, 0x00, 0x00, 0x00, 0x02, 0x00, 0x00, 0x00,
  0xb2, 0xff, 0xff, 0xff, 0x20, 0x00, 0x00, 0x00, 0x00, 0x00, 0x00, 0x01,
  0x28, 0x00, 0x00, 0x00, 0x2c, 0x00, 0x00, 0x00, 0x02, 0x00, 0x00, 0x00,
  0x0c, 0x00, 0x10, 0x00, 0x00, 0x00, 0x0c, 0x00, 0x08, 0x00, 0x07, 0x00,
  0x0c, 0x00, 0x00, 0x00, 0x00, 0x00, 0x00, 0x01, 0x01, 0x00, 0x00, 0x00,
  0x02, 0x00, 0x00, 0x00, 0x01, 0x00, 0x00, 0x00, 0x0f, 0x00, 0x00, 0x00,
  0x03, 0x00, 0x00, 0x00, 0x0e, 0x00, 0x00, 0x00, 0x0c, 0x00, 0x00, 0x00,
  0x0b, 0x00, 0x00, 0x00, 0x00, 0x00, 0x0e, 0x00, 0x18, 0x00, 0x14, 0x00,
  0x10, 0x00, 0x0c, 0x00, 0x0b, 0x00, 0x04, 0x00, 0x0e, 0x00, 0x00, 0x00,
  0x14, 0x00, 0x00, 0x00, 0x00, 0x00, 0x00, 0x34, 0x10, 0x00, 0x00, 0x00,
  0x14, 0x00, 0x00, 0x00, 0x01, 0x00, 0x00, 0x00, 0xc4, 0xeb, 0xff, 0xff,
  0x01, 0x00, 0x00, 0x00, 0x0e, 0x00, 0x00, 0x00, 0x02, 0x00, 0x00, 0x00,
  0x0d, 0x00, 0x00, 0x00, 0x01, 0x00, 0x00, 0x00, 0x00, 0x00, 0x0a, 0x00,
  0x0c, 0x00, 0x00, 0x00, 0x08, 0x00, 0x04, 0x00, 0x0a, 0x00, 0x00, 0x00,
  0x08, 0x00, 0x00, 0x00, 0x0c, 0x00, 0x00, 0x00, 0x01, 0x00, 0x00, 0x00,
  0x0d, 0x00, 0x00, 0x00, 0x01, 0x00, 0x00, 0x00, 0x00, 0x00, 0x00, 0x00,
  0x01, 0x00, 0x00, 0x00, 0x18, 0x00, 0x00, 0x00, 0x01, 0x00, 0x00, 0x00,
  0x00, 0x00, 0x00, 0x00, 0x19, 0x00, 0x00, 0x00, 0xbc, 0x13, 0x00, 0x00,
  0x54, 0x13, 0x00, 0x00, 0xf0, 0x12, 0x00, 0x00, 0xa0, 0x12, 0x00, 0x00,
  0x5c, 0x12, 0x00, 0x00, 0xdc, 0x11, 0x00, 0x00, 0x74, 0x11, 0x00, 0x00,
  0x88, 0x0f, 0x00, 0x00, 0xa4, 0x0d, 0x00, 0x00, 0xd8, 0x0c, 0x00, 0x00,
  0x14, 0x0c, 0x00, 0x00, 0x30, 0x0a, 0x00, 0x00, 0x4c, 0x08, 0x00, 0x00,
  0xd4, 0x07, 0x00, 0x00, 0x2c, 0x07, 0x00, 0x00, 0x28, 0x06, 0x00, 0x00,
  0x58, 0x05, 0x00, 0x00, 0xc0, 0x04, 0x00, 0x00, 0xc4, 0x03, 0x00, 0x00,
  0xec, 0x02, 0x00, 0x00, 0x54, 0x02, 0x00, 0x00, 0x58, 0x01, 0x00, 0x00,
  0xdc, 0x00, 0x00, 0x00, 0x60, 0x00, 0x00, 0x00, 0x04, 0x00, 0x00, 0x00,
  0xbe, 0xec, 0xff, 0xff, 0x00, 0x00, 0x00, 0x01, 0x14, 0x00, 0x00, 0x00,
  0x1c, 0x00, 0x00, 0x00, 0x1c, 0x00, 0x00, 0x00, 0x19, 0x00, 0x00, 0x00,
  0x34, 0x00, 0x00, 0x00, 0x02, 0x00, 0x00, 0x00, 0xff, 0xff, 0xff, 0xff,
  0x01, 0x00, 0x00, 0x00, 0xa4, 0xec, 0xff, 0xff, 0x19, 0x00, 0x00, 0x00,
  0x53, 0x74, 0x61, 0x74, 0x65, 0x66, 0x75, 0x6c, 0x50, 0x61, 0x72, 0x74,
  0x69, 0x74, 0x69, 0x6f, 0x6e, 0x65, 0x64, 0x43, 0x61, 0x6c, 0x6c, 0x3a,
  0x30, 0x00, 0x00, 0x00, 0x02, 0x00, 0x00, 0x00, 0x01, 0x00, 0x00, 0x00,
  0x01, 0x00, 0x00, 0x00, 0xca, 0xf8, 0xff, 0xff, 0x00, 0x00, 0x00, 0x01,
  0x18, 0x00, 0x00, 0x00, 0x20, 0x00, 0x00, 0x00, 0x3c, 0x00, 0x00, 0x00,
  0x18, 0x00, 0x00, 0x00, 0x00, 0x00, 0x00, 0x09, 0x50, 0x00, 0x00, 0x00,
  0x02, 0x00, 0x00, 0x00, 0xff, 0xff, 0xff, 0xff, 0x01, 0x00, 0x00, 0x00,
  0xdc, 0xee, 0xff, 0xff, 0x08, 0x00, 0x00, 0x00, 0x10, 0x00, 0x00, 0x00,
  0x01, 0x00, 0x00, 0x00, 0x80, 0xff, 0xff, 0xff, 0xff, 0xff, 0xff, 0xff,
  0x01, 0x00, 0x00, 0x00, 0x0e, 0xa3, 0xce, 0x3f, 0x1a, 0x00, 0x00, 0x00,
  0x53, 0x74, 0x61, 0x74, 0x65, 0x66, 0x75, 0x6c, 0x50, 0x61, 0x72, 0x74,
  0x69, 0x74, 0x69, 0x6f, 0x6e, 0x65, 0x64, 0x43, 0x61, 0x6c, 0x6c, 0x3a,
  0x30, 0x31, 0x00, 0x00, 0x02, 0x00, 0x00, 0x00, 0x01, 0x00, 0x00, 0x00,
  0x01, 0x00, 0x00, 0x00, 0x42, 0xf9, 0xff, 0xff, 0x00, 0x00, 0x00, 0x01,
  0x18, 0x00, 0x00, 0x00, 0x20, 0x00, 0x00, 0x00, 0x40, 0x00, 0x00, 0x00,
  0x17, 0x00, 0x00, 0x00, 0x00, 0x00, 0x00, 0x09, 0x50, 0x00, 0x00, 0x00,
  0x02, 0x00, 0x00, 0x00, 0xff, 0xff, 0xff, 0xff, 0x80, 0x01, 0x00, 0x00,
  0x54, 0xef, 0xff, 0xff, 0x08, 0x00, 0x00, 0x00, 0x14, 0x00, 0x00, 0x00,
  0x01, 0x00, 0x00, 0x00, 0x80, 0xff, 0xff, 0xff, 0xff, 0xff, 0xff, 0xff,
  0x00, 0x00, 0x00, 0x00, 0x01, 0x00, 0x00, 0x00, 0xd5, 0x1a, 0xc5, 0x3f,
  0x15, 0x00, 0x00, 0x00, 0x6d, 0x6f, 0x64, 0x65, 0x6c, 0x2f, 0x66, 0x6c,
  0x61, 0x74, 0x74, 0x65, 0x6e, 0x2f, 0x52, 0x65, 0x73, 0x68, 0x61, 0x70,
  0x65, 0x00, 0x00, 0x00, 0x02, 0x00, 0x00, 0x00, 0x01, 0x00, 0x00, 0x00,
  0x80, 0x01, 0x00, 0x00, 0xba, 0xf9, 0xff, 0xff, 0x00, 0x00, 0x00, 0x01,
  0x18, 0x00, 0x00, 0x00, 0x28, 0x00, 0x00, 0x00, 0x48, 0x00, 0x00, 0x00,
  0x16, 0x00, 0x00, 0x00, 0x00, 0x00, 0x00, 0x09, 0xc8, 0x00, 0x00, 0x00,
  0x04, 0x00, 0x00, 0x00, 0xff, 0xff, 0xff, 0xff, 0x01, 0x00, 0x00, 0x00,
  0x0c, 0x00, 0x00, 0x00, 0x20, 0x00, 0x00, 0x00, 0xd4, 0xef, 0xff, 0xff,
  0x08, 0x00, 0x00, 0x00, 0x14, 0x00, 0x00, 0x00, 0x01, 0x00, 0x00, 0x00,
  0x80, 0xff, 0xff, 0xff, 0xff, 0xff, 0xff, 0xff, 0x00, 0x00, 0x00, 0x00,
  0x01, 0x00, 0x00, 0x00, 0xd5, 0x1a, 0xc5, 0x3f, 0x84, 0x00, 0x00, 0x00,
  0x6d, 0x6f, 0x64, 0x65, 0x6c, 0x2f, 0x63, 0x6f, 0x6e, 0x76, 0x31, 0x64,
  0x5f, 0x32, 0x2f, 0x52, 0x65, 0x6c, 0x75, 0x3b, 0x6d, 0x6f, 0x64, 0x65,
  0x6c, 0x2f, 0x63, 0x6f, 0x6e, 0x76, 0x31, 0x64, 0x5f, 0x32, 0x2f, 0x42,
  0x69, 0x61, 0x73, 0x41, 0x64, 0x64, 0x3b, 0x6d, 0x6f, 0x64, 0x65, 0x6c,
  0x2f, 0x63, 0x6f, 0x6e, 0x76, 0x31, 0x64, 0x5f, 0x32, 0x2f, 0x43, 0x6f,
  0x6e, 0x76, 0x31, 0x44, 0x2f, 0x53, 0x71, 0x75, 0x65, 0x65, 0x7a, 0x65,
  0x3b, 0x6d, 0x6f, 0x64, 0x65, 0x6c, 0x2f, 0x63, 0x6f, 0x6e, 0x76, 0x31,
  0x64, 0x5f, 0x32, 0x2f, 0x42, 0x69, 0x61, 0x73, 0x41, 0x64, 0x64, 0x2f,
  0x52, 0x65, 0x61, 0x64, 0x56, 0x61, 0x72, 0x69, 0x61, 0x62, 0x6c, 0x65,
  0x4f, 0x70, 0x3b, 0x6d, 0x6f, 0x64, 0x65, 0x6c, 0x2f, 0x63, 0x6f, 0x6e,
  0x76, 0x31, 0x64, 0x5f, 0x32, 0x2f, 0x43, 0x6f, 0x6e, 0x76, 0x31, 0x44,
  0x00, 0x00, 0x00, 0x00, 0x04, 0x00, 0x00, 0x00, 0x01, 0x00, 0x00, 0x00,
  0x01, 0x00, 0x00, 0x00, 0x0c, 0x00, 0x00, 0x00, 0x20, 0x00, 0x00, 0x00,
  0xb2, 0xfa, 0xff, 0xff, 0x00, 0x00, 0x00, 0x01, 0x18, 0x00, 0x00, 0x00,
  0x28, 0x00, 0x00, 0x00, 0x48, 0x00, 0x00, 0x00, 0x15, 0x00, 0x00, 0x00,
  0x00, 0x00, 0x00, 0x09, 0x64, 0x00, 0x00, 0x00, 0x04, 0x00, 0x00, 0x00,
  0xff, 0xff, 0xff, 0xff, 0x01, 0x00, 0x00, 0x00, 0x0c, 0x00, 0x00, 0x00,
  0x08, 0x00, 0x00, 0x00, 0xcc, 0xf0, 0xff, 0xff, 0x08, 0x00, 0x00, 0x00,
  0x14, 0x00, 0x00, 0x00, 0x01, 0x00, 0x00, 0x00, 0x80, 0xff, 0xff, 0xff,
  0xff, 0xff, 0xff, 0xff, 0x00, 0x00, 0x00, 0x00, 0x01, 0x00, 0x00, 0x00,
  0x0d, 0x68, 0x85, 0x40, 0x20, 0x00, 0x00, 0x00, 0x6d, 0x6f, 0x64, 0x65,
  0x6c, 0x2f, 0x63, 0x6f, 0x6e, 0x76, 0x31, 0x64, 0x5f, 0x32, 0x2f, 0x43,
  0x6f, 0x6e, 0x76, 0x31, 0x44, 0x2f, 0x45, 0x78, 0x70, 0x61, 0x6e, 0x64,
  0x44, 0x69, 0x6d, 0x73, 0x00, 0x00, 0x00, 0x00, 0x04, 0x00, 0x00, 0x00,
  0x01, 0x00, 0x00, 0x00, 0x01, 0x00, 0x00, 0x00, 0x0c, 0x00, 0x00, 0x00,
  0x08, 0x00, 0x00, 0x00, 0x46, 0xfb, 0xff, 0xff, 0x00, 0x00, 0x00, 0x01,
  0x18, 0x00, 0x00, 0x00, 0x24, 0x00, 0x00, 0x00, 0x40, 0x00, 0x00, 0x00,
  0x14, 0x00, 0x00, 0x00, 0x00, 0x00, 0x00, 0x09, 0xa8, 0x00, 0x00, 0x00,
  0x03, 0x00, 0x00, 0x00, 0xff, 0xff, 0xff, 0xff, 0x0c, 0x00, 0x00, 0x00,
  0x08, 0x00, 0x00, 0x00, 0x5c, 0xf1, 0xff, 0xff, 0x08, 0x00, 0x00, 0x00,
  0x10, 0x00, 0x00, 0x00, 0x01, 0x00, 0x00, 0x00, 0x80, 0xff, 0xff, 0xff,
  0xff, 0xff, 0xff, 0xff, 0x01, 0x00, 0x00, 0x00, 0x0d, 0x68, 0x85, 0x40,
  0x6e, 0x00, 0x00, 0x00, 0x6d, 0x6f, 0x64, 0x65, 0x6c, 0x2f, 0x63, 0x6f,
  0x6e, 0x76, 0x31, 0x64, 0x5f, 0x31, 0x2f, 0x52, 0x65, 0x6c, 0x75, 0x3b,
  0x6d, 0x6f, 0x64, 0x65, 0x6c, 0x2f, 0x63, 0x6f, 0x6e, 0x76, 0x31, 0x64,
  0x5f, 0x31, 0x2f, 0x42, 0x69, 0x61, 0x73, 0x41, 0x64, 0x64, 0x3b, 0x6d,
  0x6f, 0x64, 0x65, 0x6c, 0x2f, 0x63, 0x6f, 0x6e, 0x76, 0x31, 0x64, 0x5f,
  0x31, 0x2f, 0x43, 0x6f, 0x6e, 0x76, 0x31, 0x44, 0x2f, 0x53, 0x71, 0x75,
  0x65, 0x65, 0x7a, 0x65, 0x3b, 0x6d, 0x6f, 0x64, 0x65, 0x6c, 0x2f, 0x63,
  0x6f, 0x6e, 0x76, 0x31, 0x64, 0x5f, 0x31, 0x2f, 0x42, 0x69, 0x61, 0x73,
  0x41, 0x64, 0x64, 0x2f, 0x52, 0x65, 0x61, 0x64, 0x56, 0x61, 0x72, 0x69,
  0x61, 0x62, 0x6c, 0x65, 0x4f, 0x70, 0x00, 0x00, 0x03, 0x00, 0x00, 0x00,
  0x01, 0x00, 0x00, 0x00, 0x0c, 0x00, 0x00, 0x00, 0x08, 0x00, 0x00, 0x00,
  0x1a, 0xfc, 0xff, 0xff, 0x00, 0x00, 0x00, 0x01, 0x18, 0x00, 0x00, 0x00,
  0x28, 0x00, 0x00, 0x00, 0x48, 0x00, 0x00, 0x00, 0x13, 0x00, 0x00, 0x00,
  0x00, 0x00, 0x00, 0x09, 0xc8, 0x00, 0x00, 0x00, 0x04, 0x00, 0x00, 0x00,
  0xff, 0xff, 0xff, 0xff, 0x01, 0x00, 0x00, 0x00, 0x0c, 0x00, 0x00, 0x00,
  0x08, 0x00, 0x00, 0x00, 0x34, 0xf2, 0xff, 0xff, 0x08, 0x00, 0x00, 0x00,
  0x14, 0x00, 0x00, 0x00, 0x01, 0x00, 0x00, 0x00, 0x80, 0xff, 0xff, 0xff,
  0xff, 0xff, 0xff, 0xff, 0x00, 0x00, 0x00, 0x00, 0x01, 0x00, 0x00, 0x00,
  0x0d, 0x68, 0x85, 0x40, 0x84, 0x00, 0x00, 0x00, 0x6d, 0x6f, 0x64, 0x65,
  0x6c, 0x2f, 0x63, 0x6f, 0x6e, 0x76, 0x31, 0x64, 0x5f, 0x31, 0x2f, 0x52,
  0x65, 0x6c, 0x75, 0x3b, 0x6d, 0x6f, 0x64, 0x65, 0x6c, 0x2f, 0x63, 0x6f,
  0x6e, 0x76, 0x31, 0x64, 0x5f, 0x31, 0x2f, 0x42, 0x69, 0x61, 0x73, 0x41,
  0x64, 0x64, 0x3b, 0x6d, 0x6f, 0x64, 0x65, 0x6c, 0x2f, 0x63, 0x6f, 0x6e,
  0x76, 0x31, 0x64, 0x5f, 0x31, 0x2f, 0x43, 0x6f, 0x6e, 0x76, 0x31, 0x44,
  0x2f, 0x53, 0x71, 0x75, 0x65, 0x65, 0x7a, 0x65, 0x3b, 0x6d, 0x6f, 0x64,
  0x65, 0x6c, 0x2f, 0x63, 0x6f, 0x6e, 0x76, 0x31, 0x64, 0x5f, 0x31, 0x2f,
  0x42, 0x69, 0x61, 0x73, 0x41, 0x64, 0x64, 0x2f, 0x52, 0x65, 0x61, 0x64,
  0x56, 0x61, 0x72, 0x69, 0x61, 0x62, 0x6c, 0x65, 0x4f, 0x70, 0x3b, 0x6d,
  0x6f, 0x64, 0x65, 0x6c, 0x2f, 0x63, 0x6f, 0x6e, 0x76, 0x31, 0x64, 0x5f,
  0x31, 0x2f, 0x43, 0x6f, 0x6e, 0x76, 0x31, 0x44, 0x00, 0x00, 0x00, 0x00,
  0x04, 0x00, 0x00, 0x00, 0x01, 0x00, 0x00, 0x00, 0x01, 0x00, 0x00, 0x00,
  0x0c, 0x00, 0x00, 0x00, 0x08, 0x00, 0x00, 0x00, 0x12, 0xfd, 0xff, 0xff,
  0x00, 0x00, 0x00, 0x01, 0x18, 0x00, 0x00, 0x00, 0x28, 0x00, 0x00, 0x00,
  0x48, 0x00, 0x00, 0x00, 0x12, 0x00, 0x00, 0x00, 0x00, 0x00, 0x00, 0x09,
  0x64, 0x00, 0x00, 0x00, 0x04, 0x00, 0x00, 0x00, 0xff, 0xff, 0xff, 0xff,
  0x01, 0x00, 0x00, 0x00, 0x0c, 0x00, 0x00, 0x00, 0x20, 0x00, 0x00, 0x00,
  0x2c, 0xf3, 0xff, 0xff, 0x08, 0x00, 0x00, 0x00, 0x14, 0x00, 0x00, 0x00,
  0x01, 0x00, 0x00, 0x00, 0x80, 0xff, 0xff, 0xff, 0xff, 0xff, 0xff, 0xff,
  0x00, 0x00, 0x00, 0x00, 0x01, 0x00, 0x00, 0x00, 0xcb, 0x81, 0x8d, 0x40,
  0x20, 0x00, 0x00, 0x00, 0x6d, 0x6f, 0x64, 0x65, 0x6c, 0x2f, 0x63, 0x6f,
  0x6e, 0x76, 0x31, 0x64, 0x5f, 0x31, 0x2f, 0x43, 0x6f, 0x6e, 0x76, 0x31,
  0x44, 0x2f, 0x45, 0x78, 0x70, 0x61, 0x6e, 0x64, 0x44, 0x69, 0x6d, 0x73,
  0x00, 0x00, 0x00, 0x00, 0x04, 0x00, 0x00, 0x00, 0x01, 0x00, 0x00, 0x00,
  0x01, 0x00, 0x00, 0x00, 0x0c, 0x00, 0x00, 0x00, 0x20, 0x00, 0x00, 0x00,
  0xa6, 0xfd, 0xff, 0xff, 0x00, 0x00, 0x00, 0x01, 0x18, 0x00, 0x00, 0x00,
  0x24, 0x00, 0x00, 0x00, 0x40, 0x00, 0x00, 0x00, 0x11, 0x00, 0x00, 0x00,
  0x00, 0x00, 0x00, 0x09, 0xa0, 0x00, 0x00, 0x00, 0x03, 0x00, 0x00, 0x00,
  0xff, 0xff, 0xff, 0xff, 0x0c, 0x00, 0x00, 0x00, 0x20, 0x00, 0x00, 0x00,
  0xbc, 0xf3, 0xff, 0xff, 0x08, 0x00, 0x00, 0x00, 0x10, 0x00, 0x00, 0x00,
  0x01, 0x00, 0x00, 0x00, 0x80, 0xff, 0xff, 0xff, 0xff, 0xff, 0xff, 0xff,
  0x01, 0x00, 0x00, 0x00, 0xcb, 0x81, 0x8d, 0x40, 0x66, 0x00, 0x00, 0x00,
  0x6d, 0x6f, 0x64, 0x65, 0x6c, 0x2f, 0x63, 0x6f, 0x6e, 0x76, 0x31, 0x64,
  0x2f, 0x52, 0x65, 0x6c, 0x75, 0x3b, 0x6d, 0x6f, 0x64, 0x65, 0x6c, 0x2f,
  0x63, 0x6f, 0x6e, 0x76, 0x31, 0x64, 0x2f, 0x42, 0x69, 0x61, 0x73, 0x41,
  0x64, 0x64, 0x3b, 0x6d, 0x6f, 0x64, 0x65, 0x6c, 0x2f, 0x63, 0x6f, 0x6e,
  0x76, 0x31, 0x64, 0x2f, 0x43, 0x6f, 0x6e, 0x76, 0x31, 0x44, 0x2f, 0x53,
  0x71, 0x75, 0x65, 0x65, 0x7a, 0x65, 0x3b, 0x6d, 0x6f, 0x64, 0x65, 0x6c,
  0x2f, 0x63, 0x6f, 0x6e, 0x76, 0x31, 0x64, 0x2f, 0x42, 0x69, 0x61, 0x73,
  0x41, 0x64, 0x64, 0x2f, 0x52, 0x65, 0x61, 0x64, 0x56, 0x61, 0x72, 0x69,
  0x61, 0x62, 0x6c, 0x65, 0x4f, 0x70, 0x00, 0x00, 0x03, 0x00, 0x00, 0x00,
  0x01, 0x00, 0x00, 0x00, 0x0c, 0x00, 0x00, 0x00, 0x20, 0x00, 0x00, 0x00,
  0x72, 0xfe, 0xff, 0xff, 0x00, 0x00, 0x00, 0x01, 0x18, 0x00, 0x00, 0x00,
  0x28, 0x00, 0x00, 0x00, 0x44, 0x00, 0x00, 0x00, 0x10, 0x00, 0x00, 0x00,
  0x00, 0x00, 0x00, 0x09, 0xd0, 0x00, 0x00, 0x00, 0x04, 0x00, 0x00, 0x00,
  0xff, 0xff, 0xff, 0xff, 0x01, 0x00, 0x00, 0x00, 0x0c, 0x00, 0x00, 0x00,
  0x20, 0x00, 0x00, 0x00, 0x8c, 0xf4, 0xff, 0xff, 0x08, 0x00, 0x00, 0x00,
  0x10, 0x00, 0x00, 0x00, 0x01, 0x00, 0x00, 0x00, 0x80, 0xff, 0xff, 0xff,
  0xff, 0xff, 0xff, 0xff, 0x01, 0x00, 0x00, 0x00, 0xcb, 0x81, 0x8d, 0x40,
  0x90, 0x00, 0x00, 0x00, 0x6d, 0x6f, 0x64, 0x65, 0x6c, 0x2f, 0x63, 0x6f,
  0x6e, 0x76, 0x31, 0x64, 0x2f, 0x52, 0x65, 0x6c, 0x75, 0x3b, 0x6d, 0x6f,
  0x64, 0x65, 0x6c, 0x2f, 0x63, 0x6f, 0x6e, 0x76, 0x31, 0x64, 0x2f, 0x42,
  0x69, 0x61, 0x73, 0x41, 0x64, 0x64, 0x3b, 0x6d, 0x6f, 0x64, 0x65, 0x6c,
  0x2f, 0x63, 0x6f, 0x6e, 0x76, 0x31, 0x64, 0x2f, 0x43, 0x6f, 0x6e, 0x76,
  0x31, 0x44, 0x2f, 0x53, 0x71, 0x75, 0x65, 0x65, 0x7a, 0x65, 0x3b, 0x6d,
  0x6f, 0x64, 0x65, 0x6c, 0x2f, 0x63, 0x6f, 0x6e, 0x76, 0x31, 0x64, 0x2f,
  0x42, 0x69, 0x61, 0x73, 0x41, 0x64, 0x64, 0x2f, 0x52, 0x65, 0x61, 0x64,
  0x56, 0x61, 0x72, 0x69, 0x61, 0x62, 0x6c, 0x65, 0x4f, 0x70, 0x3b, 0x6d,
  0x6f, 0x64, 0x65, 0x6c, 0x2f, 0x63, 0x6f, 0x6e, 0x76, 0x31, 0x64, 0x5f,
  0x32, 0x2f, 0x43, 0x6f, 0x6e, 0x76, 0x31, 0x44, 0x3b, 0x6d, 0x6f, 0x64,
  0x65, 0x6c, 0x2f, 0x63, 0x6f, 0x6e, 0x76, 0x31, 0x64, 0x2f, 0x43, 0x6f,
  0x6e, 0x76, 0x31, 0x44, 0x00, 0x00, 0x00, 0x00, 0x04, 0x00, 0x00, 0x00,
  0x01, 0x00, 0x00, 0x00, 0x01, 0x00, 0x00, 0x00, 0x0c, 0x00, 0x00, 0x00,
  0x20, 0x00, 0x00, 0x00, 0x72, 0xff, 0xff, 0xff, 0x00, 0x00, 0x00, 0x01,
  0x18, 0x00, 0x00, 0x00, 0x28, 0x00, 0x00, 0x00, 0x44, 0x00, 0x00, 0x00,
  0x0f, 0x00, 0x00, 0x00, 0x00, 0x00, 0x00, 0x09, 0x5c, 0x00, 0x00, 0x00,
  0x04, 0x00, 0x00, 0x00, 0xff, 0xff, 0xff, 0xff, 0x01, 0x00, 0x00, 0x00,
  0x18, 0x00, 0x00, 0x00, 0x04, 0x00, 0x00, 0x00, 0x8c, 0xf5, 0xff, 0xff,
  0x08, 0x00, 0x00, 0x00, 0x10, 0x00, 0x00, 0x00, 0x01, 0x00, 0x00, 0x00,
  0x80, 0xff, 0xff, 0xff, 0xff, 0xff, 0xff, 0xff, 0x01, 0x00, 0x00, 0x00,
  0x67, 0x01, 0xb3, 0x41, 0x1e, 0x00, 0x00, 0x00, 0x6d, 0x6f, 0x64, 0x65,
  0x6c, 0x2f, 0x63, 0x6f, 0x6e, 0x76, 0x31, 0x64, 0x2f, 0x43, 0x6f, 0x6e,
  0x76, 0x31, 0x44, 0x2f, 0x45, 0x78, 0x70, 0x61, 0x6e, 0x64, 0x44, 0x69,
  0x6d, 0x73, 0x00, 0x00, 0x04, 0x00, 0x00, 0x00, 0x01, 0x00, 0x00, 0x00,
  0x01, 0x00, 0x00, 0x00, 0x18, 0x00, 0x00, 0x00, 0x04, 0x00, 0x00, 0x00,
  0x00, 0x00, 0x16, 0x00, 0x20, 0x00, 0x1c, 0x00, 0x1b, 0x00, 0x14, 0x00,
  0x10, 0x00, 0x0c, 0x00, 0x00, 0x00, 0x00, 0x00, 0x08, 0x00, 0x07, 0x00,
  0x16, 0x00, 0x00, 0x00, 0x00, 0x00, 0x00, 0x01, 0x18, 0x00, 0x00, 0x00,
  0x24, 0x00, 0x00, 0x00, 0x40, 0x00, 0x00, 0x00, 0x0e, 0x00, 0x00, 0x00,
  0x00, 0x00, 0x00, 0x09, 0x48, 0x00, 0x00, 0x00, 0x03, 0x00, 0x00, 0x00,
  0xff, 0xff, 0xff, 0xff, 0x18, 0x00, 0x00, 0x00, 0x04, 0x00, 0x00, 0x00,
  0x2c, 0xf6, 0xff, 0xff, 0x08, 0x00, 0x00, 0x00, 0x10, 0x00, 0x00, 0x00,
  0x01, 0x00, 0x00, 0x00, 0x80, 0xff, 0xff, 0xff, 0xff, 0xff, 0xff, 0xff,
  0x01, 0x00, 0x00, 0x00, 0x67, 0x01, 0xb3, 0x41, 0x0c, 0x00, 0x00, 0x00,
  0x74, 0x66, 0x6c, 0x2e, 0x71, 0x75, 0x61, 0x6e, 0x74, 0x69, 0x7a, 0x65,
  0x00, 0x00, 0x00, 0x00, 0x03, 0x00, 0x00, 0x00, 0x01, 0x00, 0x00, 0x00,
  0x18, 0x00, 0x00, 0x00, 0x04, 0x00, 0x00, 0x00, 0x3a, 0xf5, 0xff, 0xff,
  0x00, 0x00, 0x00, 0x01, 0x14, 0x00, 0x00, 0x00, 0xa8, 0x01, 0x00, 0x00,
  0x0d, 0x00, 0x00, 0x00, 0x00, 0x00, 0x00, 0x09, 0xb4, 0x01, 0x00, 0x00,
  0x8c, 0xf6, 0xff, 0xff, 0x08, 0x00, 0x00, 0x00, 0x0c, 0x01, 0x00, 0x00,
  0x20, 0x00, 0x00, 0x00, 0x00, 0x00, 0x00, 0x00, 0x00, 0x00, 0x00, 0x00,
  0x00, 0x00, 0x00, 0x00, 0x00, 0x00, 0x00, 0x00, 0x00, 0x00, 0x00, 0x00,
  0x00, 0x00, 0x00, 0x00, 0x00, 0x00, 0x00, 0x00, 0x00, 0x00, 0x00, 0x00,
  0x00, 0x00, 0x00, 0x00, 0x00, 0x00, 0x00, 0x00, 0x00, 0x00, 0x00, 0x00,
  0x00, 0x00, 0x00, 0x00, 0x00, 0x00, 0x00, 0x00, 0x00, 0x00, 0x00, 0x00,
  0x00, 0x00, 0x00, 0x00, 0x00, 0x00, 0x00, 0x00, 0x00, 0x00, 0x00, 0x00,
  0x00, 0x00, 0x00, 0x00, 0x00, 0x00, 0x00, 0x00, 0x00, 0x00, 0x00, 0x00,
  0x00, 0x00, 0x00, 0x00, 0x00, 0x00, 0x00, 0x00, 0x00, 0x00, 0x00, 0x00,
  0x00, 0x00, 0x00, 0x00, 0x00, 0x00, 0x00, 0x00, 0x00, 0x00, 0x00, 0x00,
  0x00, 0x00, 0x00, 0x00, 0x00, 0x00, 0x00, 0x00, 0x00, 0x00, 0x00, 0x00,
  0x00, 0x00, 0x00, 0x00, 0x00, 0x00, 0x00, 0x00, 0x00, 0x00, 0x00, 0x00,
  0x00, 0x00, 0x00, 0x00, 0x00, 0x00, 0x00, 0x00, 0x00, 0x00, 0x00, 0x00,
  0x00, 0x00, 0x00, 0x00, 0x00, 0x00, 0x00, 0x00, 0x00, 0x00, 0x00, 0x00,
  0x00, 0x00, 0x00, 0x00, 0x00, 0x00, 0x00, 0x00, 0x00, 0x00, 0x00, 0x00,
  0x00, 0x00, 0x00, 0x00, 0x00, 0x00, 0x00, 0x00, 0x00, 0x00, 0x00, 0x00,
  0x00, 0x00, 0x00, 0x00, 0x00, 0x00, 0x00, 0x00, 0x00, 0x00, 0x00, 0x00,
  0x00, 0x00, 0x00, 0x00, 0x00, 0x00, 0x00, 0x00, 0x00, 0x00, 0x00, 0x00,
  0x00, 0x00, 0x00, 0x00, 0x00, 0x00, 0x00, 0x00, 0x00, 0x00, 0x00, 0x00,
  0x00, 0x00, 0x00, 0x00, 0x00, 0x00, 0x00, 0x00, 0x00, 0x00, 0x00, 0x00,
  0x00, 0x00, 0x00, 0x00, 0x00, 0x00, 0x00, 0x00, 0x00, 0x00, 0x00, 0x00,
  0x00, 0x00, 0x00, 0x00, 0x00, 0x00, 0x00, 0x00, 0x00, 0x00, 0x00, 0x00,
  0x00, 0x00, 0x00, 0x00, 0x00, 0x00, 0x00, 0x00, 0x00, 0x00, 0x00, 0x00,
  0x20, 0x00, 0x00, 0x00, 0xe1, 0x6f, 0xfa, 0x3b, 0xda, 0xfa, 0xf9, 0x3a,
  0x9c, 0xd6, 0xb4, 0x3b, 0xb2, 0x63, 0x98, 0x3b, 0xec, 0xe0, 0x03, 0x3c,
  0x7a, 0x14, 0x1f, 0x3c, 0x0a, 0xa4, 0x03, 0x3c, 0x55, 0x60, 0x11, 0x3c,
  0xad, 0xb1, 0xd5, 0x3b, 0x27, 0xf5, 0x14, 0x3c, 0x3e, 0x6a, 0x29, 0x3c,
  0xb9, 0x77, 0x0e, 0x3c, 0xb0, 0xc9, 0xfc, 0x3a, 0xba, 0xbd, 0xce, 0x3b,
  0x06, 0xd2, 0xe6, 0x3b, 0x91, 0x66, 0xb7, 0x3b, 0x43, 0x95, 0x33, 0x3c,
  0xa8, 0x58, 0x29, 0x3c, 0x1b, 0xec, 0xe3, 0x3b, 0x3c, 0xcd, 0x99, 0x3b,
  0x24, 0x4c, 0xe7, 0x3b, 0xb3, 0xa5, 0x12, 0x3c, 0xe8, 0xee, 0x11, 0x3c,
  0x5e, 0xdd, 0x18, 0x3c, 0x73, 0x9a, 0x12, 0x3b, 0xd9, 0xbd, 0xef, 0x3b,
  0x19, 0xf0, 0x4a, 0x3c, 0x4b, 0xdb, 0x0f, 0x3b, 0xe8, 0x29, 0x10, 0x3c,
  0xd3, 0x03, 0x96, 0x3b, 0x20, 0x05, 0x0f, 0x3b, 0xa6, 0x8f, 0xb8, 0x3b,
  0x13, 0x00, 0x00, 0x00, 0x6d, 0x6f, 0x64, 0x65, 0x6c, 0x2f, 0x63, 0x6f,
  0x6e, 0x76, 0x31, 0x64, 0x2f, 0x43, 0x6f, 0x6e, 0x76, 0x31, 0x44, 0x00,
  0x04, 0x00, 0x00, 0x00, 0x20, 0x00, 0x00, 0x00, 0x01, 0x00, 0x00, 0x00,
  0x02, 0x00, 0x00, 0x00, 0x04, 0x00, 0x00, 0x00, 0x1a, 0xf7, 0xff, 0xff,
  0x00, 0x00, 0x00, 0x01, 0x14, 0x00, 0x00, 0x00, 0xa4, 0x01, 0x00, 0x00,
  0x0c, 0x00, 0x00, 0x00, 0x00, 0x00, 0x00, 0x02, 0xc0, 0x01, 0x00, 0x00,
  0x6c, 0xf8, 0xff, 0xff, 0x08, 0x00, 0x00, 0x00, 0x08, 0x01, 0x00, 0x00,
  0x20, 0x00, 0x00, 0x00, 0x00, 0x00, 0x00, 0x00, 0x00, 0x00, 0x00, 0x00,
  0x00, 0x00, 0x00, 0x00, 0x00, 0x00, 0x00, 0x00, 0x00, 0x00, 0x00, 0x00,
  0x00, 0x00, 0x00, 0x00, 0x00, 0x00, 0x00, 0x00, 0x00, 0x00, 0x00, 0x00,
  0x00, 0x00, 0x00, 0x00, 0x00, 0x00, 0x00, 0x00, 0x00, 0x00, 0x00, 0x00,
  0x00, 0x00, 0x00, 0x00, 0x00, 0x00, 0x00, 0x00, 0x00, 0x00, 0x00, 0x00,
  0x00, 0x00, 0x00, 0x00, 0x00, 0x00, 0x00, 0x00, 0x00, 0x00, 0x00, 0x00,
  0x00, 0x00, 0x00, 0x00, 0x00, 0x00, 0x00, 0x00, 0x00, 0x00, 0x00, 0x00,
  0x00, 0x00, 0x00, 0x00, 0x00, 0x00, 0x00, 0x00, 0x00, 0x00, 0x00, 0x00,
  0x00, 0x00, 0x00, 0x00, 0x00, 0x00, 0x00, 0x00, 0x00, 0x00, 0x00, 0x00,
  0x00, 0x00, 0x00, 0x00, 0x00, 0x00, 0x00, 0x00, 0x00, 0x00, 0x00, 0x00,
  0x00, 0x00, 0x00, 0x00, 0x00, 0x00, 0x00, 0x00, 0x00, 0x00, 0x00, 0x00,
  0x00, 0x00, 0x00, 0x00, 0x00, 0x00, 0x00, 0x00, 0x00, 0x00, 0x00, 0x00,
  0x00, 0x00, 0x00, 0x00, 0x00, 0x00, 0x00, 0x00, 0x00, 0x00, 0x00, 0x00,
  0x00, 0x00, 0x00, 0x00, 0x00, 0x00, 0x00, 0x00, 0x00, 0x00, 0x00, 0x00,
  0x00, 0x00, 0x00, 0x00, 0x00, 0x00, 0x00, 0x00, 0x00, 0x00, 0x00, 0x00,
  0x00, 0x00, 0x00, 0x00, 0x00, 0x00, 0x00, 0x00, 0x00, 0x00, 0x00, 0x00,
  0x00, 0x00, 0x00, 0x00, 0x00, 0x00, 0x00, 0x00, 0x00, 0x00, 0x00, 0x00,
  0x00, 0x00, 0x00, 0x00, 0x00, 0x00, 0x00, 0x00, 0x00, 0x00, 0x00, 0x00,
  0x00, 0x00, 0x00, 0x00, 0x00, 0x00, 0x00, 0x00, 0x00, 0x00, 0x00, 0x00,
  0x00, 0x00, 0x00, 0x00, 0x00, 0x00, 0x00, 0x00, 0x00, 0x00, 0x00, 0x00,
  0x00, 0x00, 0x00, 0x00, 0x00, 0x00, 0x00, 0x00, 0x00, 0x00, 0x00, 0x00,
  0x00, 0x00, 0x00, 0x00, 0x00, 0x00, 0x00, 0x00, 0x20, 0x00, 0x00, 0x00,
  0x9a, 0x1d, 0x2f, 0x3e, 0xc5, 0xcb, 0x2e, 0x3d, 0x19, 0xe6, 0xfc, 0x3d,
  0x16, 0x1d, 0xd5, 0x3d, 0xfc, 0x6d, 0x38, 0x3e, 0x61, 0x78, 0x5e, 0x3e,
  0xd7, 0x18, 0x38, 0x3e, 0x4f, 0x4e, 0x4b, 0x3e, 0x68, 0x6c, 0x15, 0x3e,
  0x76, 0x50, 0x50, 0x3e, 0x6e, 0xec, 0x6c, 0x3e, 0xfc, 0x3c, 0x47, 0x3e,
  0x69, 0xc2, 0x30, 0x3d, 0xcb, 0x8f, 0x10, 0x3e, 0x1e, 0x66, 0x21, 0x3e,
  0xb9, 0x3d, 0x00, 0x3e, 0xb3, 0x24, 0x7b, 0x3e, 0xd6, 0xd3, 0x6c, 0x3e,
  0x57, 0x5f, 0x1f, 0x3e, 0xb1, 0x16, 0xd7, 0x3d, 0x82, 0xbb, 0x21, 0x3e,
  0x54, 0x15, 0x4d, 0x3e, 0xb2, 0x15, 0x4c, 0x3e, 0x3e, 0xc7, 0x55, 0x3e,
  0x98, 0x05, 0x4d, 0x3d, 0x0f, 0xa3, 0x27, 0x3e, 0xfe, 0xe6, 0x8d, 0x3e,
  0x3e, 0x2e, 0x49, 0x3d, 0x2f, 0x9c, 0x49, 0x3e, 0xfe, 0xca, 0xd1, 0x3d,
  0xbc, 0x02, 0x48, 0x3d, 0x74, 0x0d, 0x01, 0x3e, 0x23, 0x00, 0x00, 0x00,
  0x6d, 0x6f, 0x64, 0x65, 0x6c, 0x2f, 0x63, 0x6f, 0x6e, 0x76, 0x31, 0x64,
  0x2f, 0x42, 0x69, 0x61, 0x73, 0x41, 0x64, 0x64, 0x2f, 0x52, 0x65, 0x61,
  0x64, 0x56, 0x61, 0x72, 0x69, 0x61, 0x62, 0x6c, 0x65, 0x4f, 0x70, 0x00,
  0x01, 0x00, 0x00, 0x00, 0x20, 0x00, 0x00, 0x00, 0xfa, 0xf8, 0xff, 0xff,
  0x00, 0x00, 0x00, 0x01, 0x14, 0x00, 0x00, 0x00, 0x84, 0x00, 0x00, 0x00,
  0x0b, 0x00, 0x00, 0x00, 0x00, 0x00, 0x00, 0x09, 0x94, 0x00, 0x00, 0x00,
  0x4c, 0xfa, 0xff, 0xff, 0x08, 0x00, 0x00, 0x00, 0x48, 0x00, 0x00, 0x00,
  0x08, 0x00, 0x00, 0x00, 0x00, 0x00, 0x00, 0x00, 0x00, 0x00, 0x00, 0x00,
  0x00, 0x00, 0x00, 0x00, 0x00, 0x00, 0x00, 0x00, 0x00, 0x00, 0x00, 0x00,
  0x00, 0x00, 0x00, 0x00, 0x00, 0x00, 0x00, 0x00, 0x00, 0x00, 0x00, 0x00,
  0x00, 0x00, 0x00, 0x00, 0x00, 0x00, 0x00, 0x00, 0x00, 0x00, 0x00, 0x00,
  0x00, 0x00, 0x00, 0x00, 0x00, 0x00, 0x00, 0x00, 0x00, 0x00, 0x00, 0x00,
  0x00, 0x00, 0x00, 0x00, 0x00, 0x00, 0x00, 0x00, 0x08, 0x00, 0x00, 0x00,
  0x51, 0x0d, 0x5d, 0x3b, 0xca, 0x85, 0x79, 0x3b, 0x3a, 0x60, 0x6f, 0x3b,
  0xd1, 0xb2, 0x43, 0x3b, 0xcb, 0x94, 0x6a, 0x3b, 0x90, 0x20, 0xa7, 0x3b,
  0x41, 0x84, 0x63, 0x3b, 0x9a, 0xa2, 0x4e, 0x3b, 0x15, 0x00, 0x00, 0x00,
  0x6d, 0x6f, 0x64, 0x65, 0x6c, 0x2f, 0x63, 0x6f, 0x6e, 0x76, 0x31, 0x64,
  0x5f, 0x31, 0x2f, 0x43, 0x6f, 0x6e, 0x76, 0x31, 0x44, 0x00, 0x00, 0x00,
  0x04, 0x00, 0x00, 0x00, 0x08, 0x00, 0x00, 0x00, 0x01, 0x00, 0x00, 0x00,
  0x07, 0x00, 0x00, 0x00, 0x20, 0x00, 0x00, 0x00, 0xba, 0xf9, 0xff, 0xff,
  0x00, 0x00, 0x00, 0x01, 0x14, 0x00, 0x00, 0x00, 0x88, 0x00, 0x00, 0x00,
  0x0a, 0x00, 0x00, 0x00, 0x00, 0x00, 0x00, 0x02, 0xa8, 0x00, 0x00, 0x00,
  0x0c, 0xfb, 0xff, 0xff, 0x08, 0x00, 0x00, 0x00, 0x4c, 0x00, 0x00, 0x00,
  0x08, 0x00, 0x00, 0x00, 0x00, 0x00, 0x00, 0x00, 0x00, 0x00, 0x00, 0x00,
  0x00, 0x00, 0x00, 0x00, 0x00, 0x00, 0x00, 0x00, 0x00, 0x00, 0x00, 0x00,
  0x00, 0x00, 0x00, 0x00, 0x00, 0x00, 0x00, 0x00, 0x00, 0x00, 0x00, 0x00,
  0x00, 0x00, 0x00, 0x00, 0x00, 0x00, 0x00, 0x00, 0x00, 0x00, 0x00, 0x00,
  0x00, 0x00, 0x00, 0x00, 0x00, 0x00, 0x00, 0x00, 0x00, 0x00, 0x00, 0x00,
  0x00, 0x00, 0x00, 0x00, 0x00, 0x00, 0x00, 0x00, 0x00, 0x00, 0x00, 0x00,
  0x08, 0x00, 0x00, 0x00, 0xd1, 0x60, 0x74, 0x3c, 0x33, 0xed, 0x89, 0x3c,
  0x5d, 0x51, 0x84, 0x3c, 0x6b, 0x59, 0x58, 0x3c, 0xe3, 0xaa, 0x81, 0x3c,
  0x56, 0xc3, 0xb8, 0x3c, 0x64, 0x86, 0x7b, 0x3c, 0xa5, 0x70, 0x64, 0x3c,
  0x25, 0x00, 0x00, 0x00, 0x6d, 0x6f, 0x64, 0x65, 0x6c, 0x2f, 0x63, 0x6f,
  0x6e, 0x76, 0x31, 0x64, 0x5f, 0x31, 0x2f, 0x42, 0x69, 0x61, 0x73, 0x41,
  0x64, 0x64, 0x2f, 0x52, 0x65, 0x61, 0x64, 0x56, 0x61, 0x72, 0x69, 0x61,
  0x62, 0x6c, 0x65, 0x4f, 0x70, 0x00, 0x00, 0x00, 0x01, 0x00, 0x00, 0x00,
  0x08, 0x00, 0x00, 0x00, 0x82, 0xfa, 0xff, 0xff, 0x00, 0x00, 0x00, 0x01,
  0x14, 0x00, 0x00, 0x00, 0xa4, 0x01, 0x00, 0x00, 0x09, 0x00, 0x00, 0x00,
  0x00, 0x00, 0x00, 0x09, 0xb4, 0x01, 0x00, 0x00, 0xd4, 0xfb, 0xff, 0xff,
  0x08, 0x00, 0x00, 0x00, 0x08, 0x01, 0x00, 0x00, 0x20, 0x00, 0x00, 0x00,
  0x00, 0x00, 0x00, 0x00, 0x00, 0x00, 0x00, 0x00, 0x00, 0x00, 0x00, 0x00,
  0x00, 0x00, 0x00, 0x00, 0x00, 0x00, 0x00, 0x00, 0x00, 0x00, 0x00, 0x00,
  0x00, 0x00, 0x00, 0x00, 0x00, 0x00, 0x00, 0x00, 0x00, 0x00, 0x00, 0x00,
  0x00, 0x00, 0x00, 0x00, 0x00, 0x00, 0x00, 0x00, 0x00, 0x00, 0x00, 0x00,
  0x00, 0x00, 0x00, 0x00, 0x00, 0x00, 0x00, 0x00, 0x00, 0x00, 0x00, 0x00,
  0x00, 0x00, 0x00, 0x00, 0x00, 0x00, 0x00, 0x00, 0x00, 0x00, 0x00, 0x00,
  0x00, 0x00, 0x00, 0x00, 0x00, 0x00, 0x00, 0x00, 0x00, 0x00, 0x00, 0x00,
  0x00, 0x00, 0x00, 0x00, 0x00, 0x00, 0x00, 0x00, 0x00, 0x00, 0x00, 0x00,
  0x00, 0x00, 0x00, 0x00, 0x00, 0x00, 0x00, 0x00, 0x00, 0x00, 0x00, 0x00,
  0x00, 0x00, 0x00, 0x00, 0x00, 0x00, 0x00, 0x00, 0x00, 0x00, 0x00, 0x00,
  0x00, 0x00, 0x00, 0x00, 0x00, 0x00, 0x00, 0x00, 0x00, 0x00, 0x00, 0x00,
  0x00, 0x00, 0x00, 0x00, 0x00, 0x00, 0x00, 0x00, 0x00, 0x00, 0x00, 0x00,
  0x00, 0x00, 0x00, 0x00, 0x00, 0x00, 0x00, 0x00, 0x00, 0x00, 0x00, 0x00,
  0x00, 0x00, 0x00, 0x00, 0x00, 0x00, 0x00, 0x00, 0x00, 0x00, 0x00, 0x00,
  0x00, 0x00, 0x00, 0x00, 0x00, 0x00, 0x00, 0x00, 0x00, 0x00, 0x00, 0x00,
  0x00, 0x00, 0x00, 0x00, 0x00, 0x00, 0x00, 0x00, 0x00, 0x00, 0x00, 0x00,
  0x00, 0x00, 0x00, 0x00, 0x00, 0x00, 0x00, 0x00, 0x00, 0x00, 0x00, 0x00,
  0x00, 0x00, 0x00, 0x00, 0x00, 0x00, 0x00, 0x00, 0x00, 0x00, 0x00, 0x00,
  0x00, 0x00, 0x00, 0x00, 0x00, 0x00, 0x00, 0x00, 0x00, 0x00, 0x00, 0x00,
  0x00, 0x00, 0x00, 0x00, 0x00, 0x00, 0x00, 0x00, 0x00, 0x00, 0x00, 0x00,
  0x00, 0x00, 0x00, 0x00, 0x00, 0x00, 0x00, 0x00, 0x00, 0x00, 0x00, 0x00,
  0x00, 0x00, 0x00, 0x00, 0x20, 0x00, 0x00, 0x00, 0xcb, 0x5a, 0x01, 0x3b,
  0x3c, 0x5c, 0x29, 0x3b, 0x87, 0xb1, 0x67, 0x3b, 0x17, 0x9b, 0x3e, 0x3b,
  0x16, 0x27, 0x37, 0x3b, 0x05, 0xbc, 0x97, 0x3b, 0x57, 0x43, 0x21, 0x3b,
  0x08, 0x32, 0x11, 0x3b, 0x4d, 0x9a, 0x26, 0x3b, 0x25, 0x81, 0xff, 0x3a,
  0xf0, 0x20, 0x6c, 0x3b, 0x82, 0xe8, 0x52, 0x3b, 0x5c, 0x3e, 0x6f, 0x3b,
  0xc1, 0x41, 0xeb, 0x3a, 0x9b, 0xf7, 0x3e, 0x3b, 0x46, 0xea, 0x2d, 0x3b,
  0xf7, 0x98, 0x5f, 0x3b, 0x58, 0xdf, 0x3a, 0x3b, 0xee, 0x03, 0x7f, 0x3b,
  0x60, 0x97, 0x8d, 0x3b, 0x86, 0x72, 0x37, 0x3b, 0x80, 0x77, 0xe5, 0x3a,
  0xd1, 0x46, 0xf4, 0x3a, 0xac, 0xc0, 0x49, 0x3b, 0x3a, 0xc8, 0x20, 0x3b,
  0x12, 0xd1, 0x60, 0x3b, 0xd9, 0x04, 0x0d, 0x3b, 0x43, 0x4b, 0x65, 0x3b,
  0x6c, 0x40, 0x23, 0x3b, 0x84, 0x93, 0x58, 0x3b, 0x3a, 0x76, 0xb7, 0x3b,
  0x70, 0xc3, 0x20, 0x3b, 0x15, 0x00, 0x00, 0x00, 0x6d, 0x6f, 0x64, 0x65,
  0x6c, 0x2f, 0x63, 0x6f, 0x6e, 0x76, 0x31, 0x64, 0x5f, 0x32, 0x2f, 0x43,
  0x6f, 0x6e, 0x76, 0x31, 0x44, 0x00, 0x00, 0x00, 0x04, 0x00, 0x00, 0x00,
  0x20, 0x00, 0x00, 0x00, 0x01, 0x00, 0x00, 0x00, 0x03, 0x00, 0x00, 0x00,
  0x08, 0x00, 0x00, 0x00, 0x62, 0xfc, 0xff, 0xff, 0x00, 0x00, 0x00, 0x01,
  0x14, 0x00, 0x00, 0x00, 0xa8, 0x01, 0x00, 0x00, 0x08, 0x00, 0x00, 0x00,
  0x00, 0x00, 0x00, 0x02, 0xc8, 0x01, 0x00, 0x00, 0xb4, 0xfd, 0xff, 0xff,
  0x08, 0x00, 0x00, 0x00, 0x0c, 0x01, 0x00, 0x00, 0x20, 0x00, 0x00, 0x00,
  0x00, 0x00, 0x00, 0x00, 0x00, 0x00, 0x00, 0x00, 0x00, 0x00, 0x00, 0x00,
  0x00, 0x00, 0x00, 0x00, 0x00, 0x00, 0x00, 0x00, 0x00, 0x00, 0x00, 0x00,
  0x00, 0x00, 0x00, 0x00, 0x00, 0x00, 0x00, 0x00, 0x00, 0x00, 0x00, 0x00,
  0x00, 0x00, 0x00, 0x00, 0x00, 0x00, 0x00, 0x00, 0x00, 0x00, 0x00, 0x00,
  0x00, 0x00, 0x00, 0x00, 0x00, 0x00, 0x00, 0x00, 0x00, 0x00, 0x00, 0x00,
  0x00, 0x00, 0x00, 0x00, 0x00, 0x00, 0x00, 0x00, 0x00, 0x00, 0x00, 0x00,
  0x00, 0x00, 0x00, 0x00, 0x00, 0x00, 0x00, 0x00, 0x00, 0x00, 0x00, 0x00,
  0x00, 0x00, 0x00, 0x00, 0x00, 0x00, 0x00, 0x00, 0x00, 0x00, 0x00, 0x00,
  0x00, 0x00, 0x00, 0x00, 0x00, 0x00, 0x00, 0x00, 0x00, 0x00, 0x00, 0x00,
  0x00, 0x00, 0x00, 0x00, 0x00, 0x00, 0x00, 0x00, 0x00, 0x00, 0x00, 0x00,
  0x00, 0x00, 0x00, 0x00, 0x00, 0x00, 0x00, 0x00, 0x00, 0x00, 0x00, 0x00,
  0x00, 0x00, 0x00, 0x00, 0x00, 0x00, 0x00, 0x00, 0x00, 0x00, 0x00, 0x00,
  0x00, 0x00, 0x00, 0x00, 0x00, 0x00, 0x00, 0x00, 0x00, 0x00, 0x00, 0x00,
  0x00, 0x00, 0x00, 0x00, 0x00, 0x00, 0x00, 0x00, 0x00, 0x00, 0x00, 0x00,
  0x00, 0x00, 0x00, 0x00, 0x00, 0x00, 0x00, 0x00, 0x00, 0x00, 0x00, 0x00,
  0x00, 0x00, 0x00, 0x00, 0x00, 0x00, 0x00, 0x00, 0x00, 0x00, 0x00, 0x00,
  0x00, 0x00, 0x00, 0x00, 0x00, 0x00, 0x00, 0x00, 0x00, 0x00, 0x00, 0x00,
  0x00, 0x00, 0x00, 0x00, 0x00, 0x00, 0x00, 0x00, 0x00, 0x00, 0x00, 0x00,
  0x00, 0x00, 0x00, 0x00, 0x00, 0x00, 0x00, 0x00, 0x00, 0x00, 0x00, 0x00,
  0x00, 0x00, 0x00, 0x00, 0x00, 0x00, 0x00, 0x00, 0x00, 0x00, 0x00, 0x00,
  0x00, 0x00, 0x00, 0x00, 0x00, 0x00, 0x00, 0x00, 0x00, 0x00, 0x00, 0x00,
  0x00, 0x00, 0x00, 0x00, 0x00, 0x00, 0x00, 0x00, 0x20, 0x00, 0x00, 0x00,
  0x7e, 0xd1, 0x06, 0x3c, 0x82, 0x83, 0x30, 0x3c, 0xce, 0x7a, 0x71, 0x3c,
  0x17, 0xa8, 0x46, 0x3c, 0x7f, 0xe3, 0x3e, 0x3c, 0xb5, 0x24, 0x9e, 0x3c,
  0x0f, 0x13, 0x28, 0x3c, 0x04, 0x54, 0x17, 0x3c, 0xc2, 0xa3, 0x2d, 0x3c,
  0xf2, 0x25, 0x05, 0x3c, 0x2c, 0x1a, 0x76, 0x3c, 0x09, 0xd1, 0x5b, 0x3c,
  0x47, 0x59, 0x79, 0x3c, 0x90, 0x31, 0xf5, 0x3b, 0x84, 0x08, 0x47, 0x3c,
  0xcd, 0x42, 0x35, 0x3c, 0xb4, 0x0a, 0x69, 0x3c, 0xfa, 0xc3, 0x42, 0x3c,
  0xb1, 0xe4, 0x84, 0x3c, 0x63, 0x92, 0x93, 0x3c, 0x1f, 0x32, 0x3f, 0x3c,
  0xb3, 0x28, 0xef, 0x3b, 0x28, 0x98, 0xfe, 0x3b, 0x34, 0x46, 0x52, 0x3c,
  0xbf, 0x92, 0x27, 0x3c, 0xfd, 0x4f, 0x6a, 0x3c, 0xac, 0xf9, 0x12, 0x3c,
  0x98, 0xfa, 0x6e, 0x3c, 0xa5, 0x25, 0x2a, 0x3c, 0x55, 0xb9, 0x61, 0x3c,
  0xfb, 0x35, 0xbf, 0x3c, 0xc1, 0x8d, 0x27, 0x3c, 0x25, 0x00, 0x00, 0x00,
  0x6d, 0x6f, 0x64, 0x65, 0x6c, 0x2f, 0x63, 0x6f, 0x6e, 0x76, 0x31, 0x64,
  0x5f, 0x32, 0x2f, 0x42, 0x69, 0x61, 0x73, 0x41, 0x64, 0x64, 0x2f, 0x52,
  0x65, 0x61, 0x64, 0x56, 0x61, 0x72, 0x69, 0x61, 0x62, 0x6c, 0x65, 0x4f,
  0x70, 0x00, 0x00, 0x00, 0x01, 0x00, 0x00, 0x00, 0x20, 0x00, 0x00, 0x00,
  0x4a, 0xfe, 0xff, 0xff, 0x00, 0x00, 0x00, 0x01, 0x14, 0x00, 0x00, 0x00,
  0x34, 0x00, 0x00, 0x00, 0x07, 0x00, 0x00, 0x00, 0x00, 0x00, 0x00, 0x09,
  0x40, 0x00, 0x00, 0x00, 0x9c, 0xff, 0xff, 0xff, 0x08, 0x00, 0x00, 0x00,
  0x14, 0x00, 0x00, 0x00, 0x01, 0x00, 0x00, 0x00, 0x00, 0x00, 0x00, 0x00,
  0x00, 0x00, 0x00, 0x00, 0x00, 0x00, 0x00, 0x00, 0x01, 0x00, 0x00, 0x00,
  0xb3, 0x3f, 0x5a, 0x3b, 0x12, 0x00, 0x00, 0x00, 0x6d, 0x6f, 0x64, 0x65,
  0x6c, 0x2f, 0x64, 0x65, 0x6e, 0x73, 0x65, 0x2f, 0x4d, 0x61, 0x74, 0x4d,
  0x75, 0x6c, 0x00, 0x00, 0x02, 0x00, 0x00, 0x00, 0x01, 0x00, 0x00, 0x00,
  0x80, 0x01, 0x00, 0x00, 0xae, 0xfe, 0xff, 0xff, 0x00, 0x00, 0x00, 0x01,
  0x20, 0x00, 0x00, 0x00, 0x40, 0x00, 0x00, 0x00, 0x06, 0x00, 0x00, 0x00,
  0x00, 0x00, 0x00, 0x02, 0x5c, 0x00, 0x00, 0x00, 0x0c, 0x00, 0x0c, 0x00,
  0x00, 0x00, 0x00, 0x00, 0x08, 0x00, 0x04, 0x00, 0x0c, 0x00, 0x00, 0x00,
  0x08, 0x00, 0x00, 0x00, 0x14, 0x00, 0x00, 0x00, 0x01, 0x00, 0x00, 0x00,
  0x00, 0x00, 0x00, 0x00, 0x00, 0x00, 0x00, 0x00, 0x00, 0x00, 0x00, 0x00,
  0x01, 0x00, 0x00, 0x00, 0xe5, 0x09, 0xa8, 0x3b, 0x22, 0x00, 0x00, 0x00,
  0x6d, 0x6f, 0x64, 0x65, 0x6c, 0x2f, 0x64, 0x65, 0x6e, 0x73, 0x65, 0x2f,
  0x42, 0x69, 0x61, 0x73, 0x41, 0x64, 0x64, 0x2f, 0x52, 0x65, 0x61, 0x64,
  0x56, 0x61, 0x72, 0x69, 0x61, 0x62, 0x6c, 0x65, 0x4f, 0x70, 0x00, 0x00,
  0x01, 0x00, 0x00, 0x00, 0x01, 0x00, 0x00, 0x00, 0x2a, 0xff, 0xff, 0xff,
  0x00, 0x00, 0x00, 0x01, 0x14, 0x00, 0x00, 0x00, 0x14, 0x00, 0x00, 0x00,
  0x05, 0x00, 0x00, 0x00, 0x00, 0x00, 0x00, 0x02, 0x20, 0x00, 0x00, 0x00,
  0xa0, 0xfe, 0xff, 0xff, 0x13, 0x00, 0x00, 0x00, 0x6d, 0x6f, 0x64, 0x65,
  0x6c, 0x2f, 0x66, 0x6c, 0x61, 0x74, 0x74, 0x65, 0x6e, 0x2f, 0x43, 0x6f,
  0x6e, 0x73, 0x74, 0x00, 0x01, 0x00, 0x00, 0x00, 0x02, 0x00, 0x00, 0x00,
  0x6a, 0xff, 0xff, 0xff, 0x00, 0x00, 0x00, 0x01, 0x14, 0x00, 0x00, 0x00,
  0x14, 0x00, 0x00, 0x00, 0x04, 0x00, 0x00, 0x00, 0x00, 0x00, 0x00, 0x02,
  0x2c, 0x00, 0x00, 0x00, 0xe0, 0xfe, 0xff, 0xff, 0x1d, 0x00, 0x00, 0x00,
  0x6d, 0x6f, 0x64, 0x65, 0x6c, 0x2f, 0x63, 0x6f, 0x6e, 0x76, 0x31, 0x64,
  0x5f, 0x31, 0x2f, 0x43, 0x6f, 0x6e, 0x76, 0x31, 0x44, 0x2f, 0x53, 0x71,
  0x75, 0x65, 0x65, 0x7a, 0x65, 0x00, 0x00, 0x00, 0x01, 0x00, 0x00, 0x00,
  0x03, 0x00, 0x00, 0x00, 0xb6, 0xff, 0xff, 0xff, 0x00, 0x00, 0x00, 0x01,
  0x14, 0x00, 0x00, 0x00, 0x14, 0x00, 0x00, 0x00, 0x03, 0x00, 0x00, 0x00,
  0x00, 0x00, 0x00, 0x02, 0x28, 0x00, 0x00, 0x00, 0x2c, 0xff, 0xff, 0xff,
  0x1b, 0x00, 0x00, 0x00, 0x6d, 0x6f, 0x64, 0x65, 0x6c, 0x2f, 0x63, 0x6f,
  0x6e, 0x76, 0x31, 0x64, 0x2f, 0x43, 0x6f, 0x6e, 0x76, 0x31, 0x44, 0x2f,
  0x53, 0x71, 0x75, 0x65, 0x65, 0x7a, 0x65, 0x00, 0x01, 0x00, 0x00, 0x00,
  0x03, 0x00, 0x00, 0x00, 0x00, 0x00, 0x16, 0x00, 0x1c, 0x00, 0x18, 0x00,
  0x17, 0x00, 0x10, 0x00, 0x0c, 0x00, 0x08, 0x00, 0x00, 0x00, 0x00, 0x00,
  0x00, 0x00, 0x07, 0x00, 0x16, 0x00, 0x00, 0x00, 0x00, 0x00, 0x00, 0x01,
  0x14, 0x00, 0x00, 0x00, 0x14, 0x00, 0x00, 0x00, 0x02, 0x00, 0x00, 0x00,
  0x00, 0x00, 0x00, 0x02, 0x30, 0x00, 0x00, 0x00, 0x8c, 0xff, 0xff, 0xff,
  0x22, 0x00, 0x00, 0x00, 0x6d, 0x6f, 0x64, 0x65, 0x6c, 0x2f, 0x63, 0x6f,
  0x6e, 0x76, 0x31, 0x64, 0x2f, 0x43, 0x6f, 0x6e, 0x76, 0x31, 0x44, 0x2f,
  0x45, 0x78, 0x70, 0x61, 0x6e, 0x64, 0x44, 0x69, 0x6d, 0x73, 0x2f, 0x64,
  0x69, 0x6d, 0x00, 0x00, 0x00, 0x00, 0x00, 0x00, 0x00, 0x00, 0x16, 0x00,
  0x1c, 0x00, 0x18, 0x00, 0x00, 0x00, 0x14, 0x00, 0x10, 0x00, 0x0c, 0x00,
  0x00, 0x00, 0x00, 0x00, 0x08, 0x00, 0x07, 0x00, 0x16, 0x00, 0x00, 0x00,
  0x00, 0x00, 0x00, 0x01, 0x14, 0x00, 0x00, 0x00, 0x24, 0x00, 0x00, 0x00,
  0x24, 0x00, 0x00, 0x00, 0x01, 0x00, 0x00, 0x00, 0x3c, 0x00, 0x00, 0x00,
  0x03, 0x00, 0x00, 0x00, 0xff, 0xff, 0xff, 0xff, 0x18, 0x00, 0x00, 0x00,
  0x04, 0x00, 0x00, 0x00, 0x04, 0x00, 0x04, 0x00, 0x04, 0x00, 0x00, 0x00,
  0x19, 0x00, 0x00, 0x00, 0x73, 0x65, 0x72, 0x76, 0x69, 0x6e, 0x67, 0x5f,
  0x64, 0x65, 0x66, 0x61, 0x75, 0x6c, 0x74, 0x5f, 0x69, 0x6e, 0x70, 0x75,
  0x74, 0x5f, 0x31, 0x3a, 0x30, 0x00, 0x00, 0x00, 0x03, 0x00, 0x00, 0x00,
  0x01, 0x00, 0x00, 0x00, 0x18, 0x00, 0x00, 0x00, 0x04, 0x00, 0x00, 0x00,
  0x06, 0x00, 0x00, 0x00, 0x78, 0x00, 0x00, 0x00, 0x5c, 0x00, 0x00, 0x00,
  0x48, 0x00, 0x00, 0x00, 0x2c, 0x00, 0x00, 0x00, 0x18, 0x00, 0x00, 0x00,
  0x04, 0x00, 0x00, 0x00, 0xd4, 0xff, 0xff, 0xff, 0x06, 0x00, 0x00, 0x00,
  0x02, 0x00, 0x00, 0x00, 0x00, 0x00, 0x00, 0x06, 0xe4, 0xff, 0xff, 0xff,
  0x09, 0x00, 0x00, 0x00, 0x04, 0x00, 0x00, 0x00, 0x00, 0x00, 0x00, 0x09,
  0xcc, 0xff, 0xff, 0xff, 0x16, 0x00, 0x00, 0x00, 0x00, 0x00, 0x00, 0x16,
  0x0c, 0x00, 0x10, 0x00, 0x0f, 0x00, 0x00, 0x00, 0x08, 0x00, 0x04, 0x00,
  0x0c, 0x00, 0x00, 0x00, 0x03, 0x00, 0x00, 0x00, 0x03, 0x00, 0x00, 0x00,
  0x00, 0x00, 0x00, 0x03, 0xf4, 0xff, 0xff, 0xff, 0x46, 0x00, 0x00, 0x00,
  0x00, 0x00, 0x00, 0x46, 0x0c, 0x00, 0x0c, 0x00, 0x0b, 0x00, 0x00, 0x00,
  0x00, 0x00, 0x04, 0x00, 0x0c, 0x00, 0x00, 0x00, 0x72, 0x00, 0x00, 0x00,
  0x00, 0x00, 0x00, 0x72
};
unsigned int g_model_len = 10288;
